{
  "version": "1.0",
  "truncation": null,
  "padding": null,
  "added_tokens": [
    {
      "id": 0,
      "content": "<pad>",
      "single_word": false,
      "lstrip": false,
      "rstrip": false,
      "normalized": false,
      "special": true
    },
    {
      "id": 1,
      "content": "<bos>",
      "single_word": false,
      "lstrip": false,
      "rstrip": false,
      "normalized": false,
      "special": true
    },
    {
      "id": 2,
      "content": "<eos>",
      "single_word": false,
      "lstrip": false,
      "rstrip": false,
      "normalized": false,
      "special": true
    },
    {
      "id": 3,
      "content": "<unk>",
      "single_word": false,
      "lstrip": false,
      "rstrip": false,
      "normalized": false,
      "special": true
    }
  ],
  "normalizer": null,
  "pre_tokenizer": {
    "type": "Whitespace"
  },
  "post_processor": null,
  "decoder": null,
  "model": {
    "type": "BPE",
    "dropout": null,
    "unk_token": "<unk>",
    "continuing_subword_prefix": null,
    "end_of_word_suffix": null,
    "fuse_unk": false,
    "byte_fallback": false,
    "ignore_merges": false,
    "vocab": {
      "<pad>": 0,
      "<bos>": 1,
      "<eos>": 2,
      "<unk>": 3,
      "!": 4,
      "+": 5,
      "2": 6,
      "3": 7,
      "5": 8,
      "7": 9,
      "8": 10,
      "9": 11,
      "a": 12,
      "b": 13,
      "c": 14,
      "d": 15,
      "e": 16,
      "f": 17,
      "g": 18,
      "h": 19,
      "i": 20,
      "j": 21,
      "k": 22,
      "l": 23,
      "m": 24,
      "n": 25,
      "o": 26,
      "p": 27,
      "q": 28,
      "r": 29,
      "s": 30,
      "t": 31,
      "u": 32,
      "v": 33,
      "w": 34,
      "x": 35,
      "y": 36,
      "z": 37,
      "ç": 38,
      "è": 39,
      "é": 40,
      "û": 41,
      "ء": 42,
      "آ": 43,
      "أ": 44,
      "ؤ": 45,
      "إ": 46,
      "ئ": 47,
      "ا": 48,
      "ب": 49,
      "ة": 50,
      "ت": 51,
      "ث": 52,
      "ج": 53,
      "ح": 54,
      "خ": 55,
      "د": 56,
      "ذ": 57,
      "ر": 58,
      "ز": 59,
      "س": 60,
      "ش": 61,
      "ص": 62,
      "ض": 63,
      "ط": 64,
      "ظ": 65,
      "ع": 66,
      "غ": 67,
      "ف": 68,
      "ق": 69,
      "ك": 70,
      "ل": 71,
      "م": 72,
      "ن": 73,
      "ه": 74,
      "و": 75,
      "ى": 76,
      "ي": 77,
      "ُ": 78,
      "ّ": 79,
      "پ": 80,
      "ڤ": 81,
      "ڭ": 82,
      "گ": 83,
      "at": 84,
      "ات": 85,
      "gh": 86,
      "an": 87,
      "ان": 88,
      "ch": 89,
      "ay": 90,
      "اي": 91,
      "ta": 92,
      "kh": 93,
      "kat": 94,
      "كات": 95,
      "ghat": 96,
      "غات": 97,
      "el": 98,
      "تا": 99,
      "dd": 100,
      "er": 101,
      "in": 102,
      "ين": 103,
      "دّ": 104,
      "ال": 105,
      "ar": 106,
      "mo": 107,
      "لّ": 108,
      "وّ": 109,
      "ww": 110,
      "to": 111,
      "kay": 112,
      "كاي": 113,
      "kan": 114,
      "كان": 115,
      "aa": 116,
      "ghay": 117,
      "ghan": 118,
      "ti": 119,
      "غان": 120,
      "غاي": 121,
      "تو": 122,
      "مو": 123,
      "em": 124,
      "ار": 125,
      "na": 126,
      "او": 127,
      "do": 128,
      "lo": 129,
      "3a": 130,
      "رّ": 131,
      "لو": 132,
      "ro": 133,
      "la": 134,
      "رو": 135,
      "نا": 136,
      "tt": 137,
      "sa": 138,
      "eb": 139,
      "ed": 140,
      "تي": 141,
      "li": 142,
      "يّ": 143,
      "ma": 144,
      "ra": 145,
      "en": 146,
      "yy": 147,
      "مّ": 148,
      "bo": 149,
      "ri": 150,
      "e3": 151,
      "ري": 152,
      "edd": 153,
      "بو": 154,
      "da": 155,
      "ss": 156,
      "يو": 157,
      "دو": 158,
      "مع": 159,
      "را": 160,
      "ts": 161,
      "3o": 162,
      "e9": 163,
      "mi": 164,
      "لا": 165,
      "كّ": 166,
      "di": 167,
      "kk": 168,
      "لي": 169,
      "ll": 170,
      "ba": 171,
      "تس": 172,
      "ell": 173,
      "9a": 174,
      "من": 175,
      "fa": 176,
      "بّ": 177,
      "عو": 178,
      "دي": 179,
      "bi": 180,
      "so": 181,
      "ست": 182,
      "اب": 183,
      "wa": 184,
      "jj": 185,
      "st": 186,
      "ef": 187,
      "t7": 188,
      "مي": 189,
      "9o": 190,
      "rr": 191,
      "mn": 192,
      "جّ": 193,
      "سّ": 194,
      "تح": 195,
      "قو": 196,
      "tar": 197,
      "7a": 198,
      "نو": 199,
      "دا": 200,
      "تار": 201,
      "تع": 202,
      "قّ": 203,
      "es": 204,
      "ما": 205,
      "فو": 206,
      "7o": 207,
      "بي": 208,
      "fo": 209,
      "ja": 210,
      "3i": 211,
      "e7": 212,
      "مس": 213,
      "iw": 214,
      "قا": 215,
      "et": 216,
      "فا": 217,
      "err": 218,
      "تّ": 219,
      "فر": 220,
      "فّ": 221,
      "sta": 222,
      "si": 223,
      "fi": 224,
      "ab": 225,
      "ko": 226,
      "با": 227,
      "تج": 228,
      "emm": 229,
      "عي": 230,
      "مح": 231,
      "رب": 232,
      "tb": 233,
      "في": 234,
      "ni": 235,
      "no": 236,
      "mm": 237,
      "طّ": 238,
      "بر": 239,
      "سا": 240,
      "سي": 241,
      "سو": 242,
      "كاتّ": 243,
      "9i": 244,
      "ms": 245,
      "غاتّ": 246,
      "كو": 247,
      "mt": 248,
      "ني": 249,
      "حو": 250,
      "فض": 251,
      "عا": 252,
      "طو": 253,
      "fr": 254,
      "ez": 255,
      "قي": 256,
      "n9": 257,
      "طوّ": 258,
      "jo": 259,
      "قدّ": 260,
      "cha": 261,
      "m3": 262,
      "مش": 263,
      "tw": 264,
      "نّ": 265,
      "ستا": 266,
      "ka": 267,
      "هو": 268,
      "t3": 269,
      "3aw": 270,
      "مت": 271,
      "لب": 272,
      "ff": 273,
      "مل": 274,
      "مر": 275,
      "tab": 276,
      "tl": 277,
      "ya": 278,
      "tr": 279,
      "zi": 280,
      "خلّ": 281,
      "نش": 282,
      "ضو": 283,
      "t9": 284,
      "nch": 285,
      "zo": 286,
      "bb": 287,
      "m7": 288,
      "حا": 289,
      "سب": 290,
      "وا": 291,
      "ji": 292,
      "td": 293,
      "ej": 294,
      "جو": 295,
      "wi": 296,
      "تر": 297,
      "تب": 298,
      "tkh": 299,
      "كي": 300,
      "ki": 301,
      "حدّ": 302,
      "ختا": 303,
      "دم": 304,
      "جرّ": 305,
      "قلّ": 306,
      "صو": 307,
      "زي": 308,
      "زّ": 309,
      "عل": 310,
      "yin": 311,
      "جي": 312,
      "ha": 313,
      "زو": 314,
      "kha": 315,
      "mch": 316,
      "99": 317,
      "ejj": 318,
      "كمّ": 319,
      "toww": 320,
      "rb": 321,
      "نق": 322,
      "الت": 323,
      "در": 324,
      "وّل": 325,
      "ns": 326,
      "ير": 327,
      "شر": 328,
      "tch": 329,
      "ara": 330,
      "tta": 331,
      "ها": 332,
      "e8": 333,
      "يا": 334,
      "بط": 335,
      "7i": 336,
      "za": 337,
      "خا": 338,
      "ضّ": 339,
      "عاو": 340,
      "عال": 341,
      "ess": 342,
      "يت": 343,
      "ina": 344,
      "حّ": 345,
      "tj": 346,
      "عد": 347,
      "تش": 348,
      "صّ": 349,
      "khd": 350,
      "sl": 351,
      "تن": 352,
      "كر": 353,
      "هم": 354,
      "md": 355,
      "عر": 356,
      "cho": 357,
      "chi": 358,
      "مد": 359,
      "صل": 360,
      "lb": 361,
      "جا": 362,
      "2i": 363,
      "lat": 364,
      "sm": 365,
      "تق": 366,
      "gha": 367,
      "كا": 368,
      "kat7": 369,
      "ينا": 370,
      "br": 371,
      "ghat7": 372,
      "edded": 373,
      "3l": 374,
      "tn": 375,
      "ek": 376,
      "dr": 377,
      "جمع": 378,
      "كاتح": 379,
      "دّد": 380,
      "mr": 381,
      "غا": 382,
      "نع": 383,
      "غاتح": 384,
      "شو": 385,
      "ekk": 386,
      "حي": 387,
      "8a": 388,
      "ghi": 389,
      "فع": 390,
      "nt": 391,
      "ari": 392,
      "sb": 393,
      "تخ": 394,
      "ghatt": 395,
      "طي": 396,
      "9b": 397,
      "ml": 398,
      "katt": 399,
      "3r": 400,
      "ett": 401,
      "رج": 402,
      "saa": 403,
      "شا": 404,
      "ani": 405,
      "نس": 406,
      "khta": 407,
      "8o": 408,
      "sr": 409,
      "وق": 410,
      "aaf": 411,
      "فكّ": 412,
      "m9": 413,
      "w9": 414,
      "لم": 415,
      "e99": 416,
      "طا": 417,
      "عب": 418,
      "هر": 419,
      "doww": 420,
      "mat": 421,
      "لات": 422,
      "2a": 423,
      "rin": 424,
      "وّر": 425,
      "سم": 426,
      "مق": 427,
      "سر": 428,
      "ga": 429,
      "تص": 430,
      "عين": 431,
      "seb": 432,
      "der": 433,
      "jm": 434,
      "كاتع": 435,
      "غاتع": 436,
      "تاب": 437,
      "3in": 438,
      "دّو": 439,
      "nn": 440,
      "ضا": 441,
      "3ta": 442,
      "emmel": 443,
      "e2": 444,
      "مج": 445,
      "ڭل": 446,
      "taf": 447,
      "3al": 448,
      "gl": 449,
      "it": 450,
      "wwel": 451,
      "ّل": 452,
      "ir": 453,
      "تاق": 454,
      "9dd": 455,
      "df": 456,
      "نت": 457,
      "زا": 458,
      "مك": 459,
      "dat": 460,
      "tk": 461,
      "طل": 462,
      "غي": 463,
      "ho": 464,
      "تل": 465,
      "مات": 466,
      "kat3": 467,
      "rat": 468,
      "بل": 469,
      "ghat3": 470,
      "ech": 471,
      "شي": 472,
      "زل": 473,
      "ارا": 474,
      "nta": 475,
      "tf": 476,
      "bat": 477,
      "din": 478,
      "صا": 479,
      "طيّ": 480,
      "زع": 481,
      "khkh": 482,
      "man": 483,
      "n7": 484,
      "sto": 485,
      "تد": 486,
      "مب": 487,
      "gho": 488,
      "لّق": 489,
      "bdd": 490,
      "yo": 491,
      "نح": 492,
      "بح": 493,
      "ضي": 494,
      "عة": 495,
      "اني": 496,
      "نتج": 497,
      "يّن": 498,
      "جّل": 499,
      "3at": 500,
      "lin": 501,
      "لف": 502,
      "ضر": 503,
      "jaw": 504,
      "تك": 505,
      "nkh": 506,
      "aaj": 507,
      "mj": 508,
      "n3": 509,
      "ختار": 510,
      "شار": 511,
      "منّ": 512,
      "تحمّ": 513,
      "men": 514,
      "توقّ": 515,
      "طوّر": 516,
      "سخ": 517,
      "dda": 518,
      "دّل": 519,
      "كمّل": 520,
      "lli": 521,
      "mk": 522,
      "yt": 523,
      "غر": 524,
      "قدّر": 525,
      "هل": 526,
      "kat9": 527,
      "zz": 528,
      "ellel": 529,
      "دّي": 530,
      "i7": 531,
      "mkh": 532,
      "مص": 533,
      "ban": 534,
      "z3": 535,
      "طر": 536,
      "عن": 537,
      "رّب": 538,
      "edo": 539,
      "ghat9": 540,
      "3d": 541,
      "go": 542,
      "min": 543,
      "حب": 544,
      "دع": 545,
      "نخ": 546,
      "katkh": 547,
      "ستو": 548,
      "ghatkh": 549,
      "77": 550,
      "mb": 551,
      "فق": 552,
      "يّد": 553,
      "ميّ": 554,
      "chr": 555,
      "اوب": 556,
      "d3": 557,
      "ghr": 558,
      "char": 559,
      "kats": 560,
      "رّف": 561,
      "فكّر": 562,
      "ssa": 563,
      "خدم": 564,
      "ڭو": 565,
      "katr": 566,
      "كاتق": 567,
      "ghats": 568,
      "لّف": 569,
      "ڭا": 570,
      "ghatr": 571,
      "الي": 572,
      "ءتّ": 573,
      "حلّ": 574,
      "lla": 575,
      "خدّ": 576,
      "دين": 577,
      "كاتب": 578,
      "dded": 579,
      "fkk": 580,
      "مار": 581,
      "ڭاب": 582,
      "غاتق": 583,
      "tna": 584,
      "عات": 585,
      "وّلو": 586,
      "wwlo": 587,
      "aal": 588,
      "جب": 589,
      "لة": 590,
      "نج": 591,
      "ddo": 592,
      "مة": 593,
      "هي": 594,
      "فاج": 595,
      "تف": 596,
      "ana": 597,
      "عالج": 598,
      "t2": 599,
      "y7": 600,
      "صر": 601,
      "راج": 602,
      "tsa": 603,
      "غاتب": 604,
      "لاح": 605,
      "حك": 606,
      "kan7": 607,
      "yyen": 608,
      "jrr": 609,
      "كاتس": 610,
      "kay7": 611,
      "رّك": 612,
      "tso": 613,
      "فرڭ": 614,
      "غاتس": 615,
      "ghay7": 616,
      "ghan7": 617,
      "mno": 618,
      "تعاو": 619,
      "7at": 620,
      "تنا": 621,
      "ركّ": 622,
      "كب": 623,
      "kho": 624,
      "نّا": 625,
      "شكّ": 626,
      "faj": 627,
      "fs": 628,
      "غلّ": 629,
      "رّر": 630,
      "n99": 631,
      "8i": 632,
      "تط": 633,
      "جّع": 634,
      "bda": 635,
      "gab": 636,
      "kmm": 637,
      "mer": 638,
      "خو": 639,
      "frg": 640,
      "khtal": 641,
      "kr": 642,
      "w3": 643,
      "لين": 644,
      "كاتن": 645,
      "غاتن": 646,
      "wwer": 647,
      "يع": 648,
      "مّن": 649,
      "كانّ": 650,
      "غانّ": 651,
      "dar": 652,
      "إع": 653,
      "nna": 654,
      "wg": 655,
      "حاو": 656,
      "رتا": 657,
      "aaw": 658,
      "elle9": 659,
      "عاون": 660,
      "is": 661,
      "mar": 662,
      "tat": 663,
      "حتا": 664,
      "حقّ": 665,
      "رتّ": 666,
      "tfa": 667,
      "مان": 668,
      "katch": 669,
      "ghatch": 670,
      "la7": 671,
      "قاط": 672,
      "جرّب": 673,
      "8em": 674,
      "dro": 675,
      "naa": 676,
      "rj": 677,
      "دة": 678,
      "رفض": 679,
      "مخ": 680,
      "مز": 681,
      "هزّ": 682,
      "ddem": 683,
      "db": 684,
      "i3": 685,
      "شف": 686,
      "شدّ": 687,
      "9at": 688,
      "دات": 689,
      "غوّ": 690,
      "مين": 691,
      "حطّ": 692,
      "eddo": 693,
      "8el": 694,
      "مسح": 695,
      "yat": 696,
      "miyy": 697,
      "9aat": 698,
      "خلّص": 699,
      "bin": 700,
      "صبّ": 701,
      "همو": 702,
      "ent": 703,
      "7aw": 704,
      "lm": 705,
      "جز": 706,
      "خر": 707,
      "وڭ": 708,
      "fd": 709,
      "mz": 710,
      "مض": 711,
      "عرض": 712,
      "eyy": 713,
      "ftar": 714,
      "sem": 715,
      "قب": 716,
      "وّج": 717,
      "كايع": 718,
      "توا": 719,
      "كمّلو": 720,
      "egh": 721,
      "tti": 722,
      "رات": 723,
      "khtar": 724,
      "stagh": 725,
      "nj": 726,
      "wss": 727,
      "بع": 728,
      "تفا": 729,
      "داو": 730,
      "فتار": 731,
      "هرّ": 732,
      "يتي": 733,
      "khss": 734,
      "erreb": 735,
      "ber": 736,
      "daa": 737,
      "zl": 738,
      "تض": 739,
      "باد": 740,
      "tbb": 741,
      "3j": 742,
      "wjj": 743,
      "إن": 744,
      "قاو": 745,
      "يين": 746,
      "كانع": 747,
      "غانع": 748,
      "غايع": 749,
      "99e9": 750,
      "rtt": 751,
      "قل": 752,
      "نب": 753,
      "يس": 754,
      "ddi": 755,
      "ard": 756,
      "حر": 757,
      "زن": 758,
      "كل": 759,
      "ddel": 760,
      "eddedo": 761,
      "بات": 762,
      "زر": 763,
      "طار": 764,
      "l3": 765,
      "خل": 766,
      "فهم": 767,
      "saw": 768,
      "bad": 769,
      "ekh": 770,
      "طلب": 771,
      "لّغ": 772,
      "بّر": 773,
      "3awn": 774,
      "علن": 775,
      "8r": 776,
      "tla": 777,
      "بين": 778,
      "دف": 779,
      "towwer": 780,
      "حسّ": 781,
      "خفّ": 782,
      "فح": 783,
      "لحّ": 784,
      "هّ": 785,
      "2ett": 786,
      "8er": 787,
      "bta": 788,
      "مف": 789,
      "وجّ": 790,
      "khat": 791,
      "ارض": 792,
      "8rr": 793,
      "fat": 794,
      "تء": 795,
      "حت": 796,
      "ور": 797,
      "arr": 798,
      "wr": 799,
      "منا": 800,
      "يتو": 801,
      "كاتش": 802,
      "غاتش": 803,
      "ابق": 804,
      "twe99": 805,
      "9edd": 806,
      "bl": 807,
      "day": 808,
      "fin": 809,
      "im": 810,
      "sat": 811,
      "غل": 812,
      "قر": 813,
      "قش": 814,
      "jme3": 815,
      "3alj": 816,
      "m2": 817,
      "خد": 818,
      "تحكّ": 819,
      "بره": 820,
      "هوم": 821,
      "حدّد": 822,
      "ختالف": 823,
      "mf": 824,
      "دار": 825,
      "مست": 826,
      "وّن": 827,
      "wwl": 828,
      "koww": 829,
      "نشر": 830,
      "توقّع": 831,
      "2o": 832,
      "3tar": 833,
      "al": 834,
      "il": 835,
      "nat": 836,
      "تلا": 837,
      "جه": 838,
      "taab": 839,
      "katn": 840,
      "ghatn": 841,
      "eddi": 842,
      "sif": 843,
      "ربح": 844,
      "3awen": 845,
      "rkk": 846,
      "sti": 847,
      "zem": 848,
      "بان": 849,
      "سبو": 850,
      "سمع": 851,
      "ضع": 852,
      "وضّ": 853,
      "ejjel": 854,
      "sbo": 855,
      "ته": 856,
      "سل": 857,
      "مء": 858,
      "ta7": 859,
      "emmen": 860,
      "dyy": 861,
      "sin": 862,
      "رين": 863,
      "طبّ": 864,
      "فس": 865,
      "errer": 866,
      "emmlo": 867,
      "وقف": 868,
      "blo": 869,
      "f7": 870,
      "ضيّ": 871,
      "ية": 872,
      "khll": 873,
      "لّم": 874,
      "تسا": 875,
      "b7": 876,
      "حات": 877,
      "كاين": 878,
      "مدّ": 879,
      "ghaa": 880,
      "9ch": 881,
      "bbi": 882,
      "dm": 883,
      "mel": 884,
      "ou": 885,
      "zr": 886,
      "حوّل": 887,
      "طلّ": 888,
      "tach": 889,
      "ddab": 890,
      "8b": 891,
      "bro": 892,
      "laa": 893,
      "ser": 894,
      "تقا": 895,
      "سك": 896,
      "قت": 897,
      "kay3": 898,
      "مشّ": 899,
      "تبع": 900,
      "خاط": 901,
      "9ll": 902,
      "tto": 903,
      "تمنّ": 904,
      "دوّ": 905,
      "قسم": 906,
      "khr": 907,
      "طوّرو": 908,
      "متات": 909,
      "id": 910,
      "sk": 911,
      "بغ": 912,
      "جاوب": 913,
      "داي": 914,
      "قة": 915,
      "نص": 916,
      "kemmel": 917,
      "lem": 918,
      "tel": 919,
      "قات": 920,
      "دّلو": 921,
      "يّر": 922,
      "جّلو": 923,
      "سّر": 924,
      "سيف": 925,
      "قدّم": 926,
      "قدّرو": 927,
      "e99e9": 928,
      "تحمّل": 929,
      "aw": 930,
      "حسب": 931,
      "درو": 932,
      "دفع": 933,
      "فل": 934,
      "khi": 935,
      "kan3": 936,
      "يّنو": 937,
      "tserr": 938,
      "ركّز": 939,
      "جم": 940,
      "t7emmel": 941,
      "تّا": 942,
      "3red": 943,
      "رجع": 944,
      "تعاون": 945,
      "y3": 946,
      "بعد": 947,
      "زم": 948,
      "نقّ": 949,
      "kayt": 950,
      "ghay3": 951,
      "ghan3": 952,
      "rrer": 953,
      "فرش": 954,
      "ffed": 955,
      "ffef": 956,
      "ڭلس": 957,
      "سين": 958,
      "طة": 959,
      "katb": 960,
      "ghatb": 961,
      "mo3": 962,
      "mtat": 963,
      "ڭابل": 964,
      "رتّب": 965,
      "bes": 966,
      "ich": 967,
      "ام": 968,
      "فين": 969,
      "كتا": 970,
      "ghl": 971,
      "mo7": 972,
      "eb3": 973,
      "kkel": 974,
      "chaw": 975,
      "l7": 976,
      "le7": 977,
      "tm": 978,
      "ws": 979,
      "بار": 980,
      "خار": 981,
      "هّل": 982,
      "دافع": 983,
      "نقل": 984,
      "3ta9": 985,
      "ghoww": 986,
      "8ez": 987,
      "dem": 988,
      "fh": 989,
      "i9": 990,
      "lmo": 991,
      "me3": 992,
      "عشر": 993,
      "قوّ": 994,
      "الل": 995,
      "ارّ": 996,
      "عالجو": 997,
      "حة": 998,
      "هد": 999,
      "يات": 1000,
      "tal": 1001,
      "خلّط": 1002,
      "ميّز": 1003,
      "mna": 1004,
      "ءكّ": 1005,
      "صوّ": 1006,
      "يب": 1007,
      "ddmo": 1008,
      "kayn": 1009,
      "dir": 1010,
      "jje3": 1011,
      "تارف": 1012,
      "mse7": 1013,
      "لبس": 1014,
      "ختابر": 1015,
      "nkhar": 1016,
      "eh": 1017,
      "kb": 1018,
      "kl": 1019,
      "keb": 1020,
      "tan": 1021,
      "سة": 1022,
      "وقّ": 1023,
      "يل": 1024,
      "sab": 1025,
      "ma3": 1026,
      "yya": 1027,
      "9aw": 1028,
      "غادر": 1029,
      "قاطع": 1030,
      "ker": 1031,
      "twa": 1032,
      "إب": 1033,
      "aya": 1034,
      "الن": 1035,
      "mou": 1036,
      "rab": 1037,
      "ستاغلّ": 1038,
      "طيّب": 1039,
      "8en": 1040,
      "9aa": 1041,
      "mst": 1042,
      "حين": 1043,
      "دب": 1044,
      "رة": 1045,
      "سدّ": 1046,
      "غلب": 1047,
      "الم": 1048,
      "mo2": 1049,
      "wwro": 1050,
      "yyed": 1051,
      "yyno": 1052,
      "مّنو": 1053,
      "ell9o": 1054,
      "جّعو": 1055,
      "7in": 1056,
      "ia": 1057,
      "kch": 1058,
      "mw": 1059,
      "rf": 1060,
      "sel": 1061,
      "tmn": 1062,
      "فات": 1063,
      "نيو": 1064,
      "هار": 1065,
      "وص": 1066,
      "ڭّ": 1067,
      "yyer": 1068,
      "تسلّ": 1069,
      "ستنتج": 1070,
      "n9el": 1071,
      "tjww": 1072,
      "سخّ": 1073,
      "8lo": 1074,
      "خبّ": 1075,
      "سبّ": 1076,
      "نز": 1077,
      "هرب": 1078,
      "كاتر": 1079,
      "3aan": 1080,
      "frch": 1081,
      "نخار": 1082,
      "ءتّر": 1083,
      "bar": 1084,
      "dna": 1085,
      "niw": 1086,
      "raaj": 1087,
      "حال": 1088,
      "خصّ": 1089,
      "سات": 1090,
      "غاتر": 1091,
      "دّاب": 1092,
      "wwi": 1093,
      "tbe3": 1094,
      "tdkhkh": 1095,
      "9in": 1096,
      "ib": 1097,
      "qa": 1098,
      "tz": 1099,
      "waa": 1100,
      "برو": 1101,
      "شط": 1102,
      "كيو": 1103,
      "لّي": 1104,
      "kay9": 1105,
      "kays": 1106,
      "mal": 1107,
      "منع": 1108,
      "jjel": 1109,
      "فّد": 1110,
      "عاود": 1111,
      "عبد": 1112,
      "خدّم": 1113,
      "mgh": 1114,
      "m3a": 1115,
      "tin": 1116,
      "ys": 1117,
      "قبط": 1118,
      "اين": 1119,
      "katst": 1120,
      "ghatst": 1121,
      "kans": 1122,
      "ghays": 1123,
      "ghans": 1124,
      "tsara": 1125,
      "miw": 1126,
      "t7ekk": 1127,
      "فضو": 1128,
      "فرڭع": 1129,
      "فتارض": 1130,
      "msa": 1131,
      "جمّ": 1132,
      "خرج": 1133,
      "سمح": 1134,
      "طال": 1135,
      "مغ": 1136,
      "وصّ": 1137,
      "ghiw": 1138,
      "taj": 1139,
      "mo3a": 1140,
      "موع": 1141,
      "naw": 1142,
      "lia": 1143,
      "daf": 1144,
      "كره": 1145,
      "7k": 1146,
      "jerr": 1147,
      "تأ": 1148,
      "سمو": 1149,
      "شد": 1150,
      "cher": 1151,
      "khtab": 1152,
      "تاح": 1153,
      "كايب": 1154,
      "كانب": 1155,
      "غايب": 1156,
      "stow3": 1157,
      "راجع": 1158,
      "dri": 1159,
      "kiw": 1160,
      "lna": 1161,
      "ne3": 1162,
      "wedd": 1163,
      "y9": 1164,
      "zel": 1165,
      "إح": 1166,
      "تم": 1167,
      "خّ": 1168,
      "فعو": 1169,
      "هضر": 1170,
      "chrin": 1171,
      "khs": 1172,
      "ddlo": 1173,
      "رّبو": 1174,
      "liw": 1175,
      "منو": 1176,
      "errek": 1177,
      "bddel": 1178,
      "غرق": 1179,
      "بادل": 1180,
      "del": 1181,
      "daaf": 1182,
      "far": 1183,
      "mla": 1184,
      "ych": 1185,
      "بطو": 1186,
      "خي": 1187,
      "خّل": 1188,
      "قرّ": 1189,
      "كس": 1190,
      "لع": 1191,
      "لفو": 1192,
      "مط": 1193,
      "ڭر": 1194,
      "انا": 1195,
      "ello": 1196,
      "لّا": 1197,
      "kaych": 1198,
      "kanch": 1199,
      "ghaych": 1200,
      "ghanch": 1201,
      "غانب": 1202,
      "تّر": 1203,
      "tleb": 1204,
      "3len": 1205,
      "aalj": 1206,
      "kmmel": 1207,
      "frg3": 1208,
      "2em": 1209,
      "smo": 1210,
      "wd": 1211,
      "قلم": 1212,
      "دّا": 1213,
      "kan9": 1214,
      "ghay9": 1215,
      "ghan9": 1216,
      "باط": 1217,
      "ضّم": 1218,
      "nta9": 1219,
      "دعم": 1220,
      "عشرين": 1221,
      "nin": 1222,
      "t9a": 1223,
      "حد": 1224,
      "مه": 1225,
      "يح": 1226,
      "khl": 1227,
      "mom": 1228,
      "مّر": 1229,
      "riw": 1230,
      "7al": 1231,
      "فضّل": 1232,
      "hom": 1233,
      "حكم": 1234,
      "bna": 1235,
      "jez": 1236,
      "mlo": 1237,
      "nb": 1238,
      "zlo": 1239,
      "حس": 1240,
      "dder": 1241,
      "اول": 1242,
      "اوبو": 1243,
      "3aar": 1244,
      "رّفو": 1245,
      "رّكو": 1246,
      "يّدو": 1247,
      "yydo": 1248,
      "dam": 1249,
      "تسعين": 1250,
      "مسحو": 1251,
      "تجوّج": 1252,
      "ms7o": 1253,
      "3awno": 1254,
      "فكّرو": 1255,
      "dowwer": 1256,
      "gabl": 1257,
      "غوّت": 1258,
      "miyyez": 1259,
      "twe99e3": 1260,
      "3ti": 1261,
      "bay": 1262,
      "tgh": 1263,
      "إل": 1264,
      "بس": 1265,
      "تطوّ": 1266,
      "دوّر": 1267,
      "شهر": 1268,
      "قين": 1269,
      "قبل": 1270,
      "مال": 1271,
      "يش": 1272,
      "يك": 1273,
      "دّدو": 1274,
      "ra2i": 1275,
      "تسارا": 1276,
      "towwro": 1277,
      "9edder": 1278,
      "ضيّع": 1279,
      "dya": 1280,
      "jr": 1281,
      "nf": 1282,
      "صي": 1283,
      "علا": 1284,
      "نتا": 1285,
      "ella": 1286,
      "lam": 1287,
      "يّا": 1288,
      "mas": 1289,
      "sser": 1290,
      "جمعو": 1291,
      "حاول": 1292,
      "هرّس": 1293,
      "برهن": 1294,
      "3t": 1295,
      "t8": 1296,
      "ئي": 1297,
      "زلو": 1298,
      "صحّ": 1299,
      "فش": 1300,
      "khell": 1301,
      "ghayr": 1302,
      "مسا": 1303,
      "صلح": 1304,
      "w9ef": 1305,
      "khtalef": 1306,
      "gu": 1307,
      "jer": 1308,
      "jm3": 1309,
      "lga": 1310,
      "mro": 1311,
      "rto": 1312,
      "عط": 1313,
      "عدو": 1314,
      "فة": 1315,
      "قتار": 1316,
      "متّ": 1317,
      "كاتك": 1318,
      "غاتك": 1319,
      "sa7": 1320,
      "sses": 1321,
      "ts3in": 1322,
      "khdm": 1323,
      "8mo": 1324,
      "bel": 1325,
      "on": 1326,
      "yan": 1327,
      "تقلّ": 1328,
      "حمّ": 1329,
      "خسّ": 1330,
      "دفّ": 1331,
      "مؤ": 1332,
      "نات": 1333,
      "ta9": 1334,
      "katk": 1335,
      "كاتست": 1336,
      "ghatk": 1337,
      "غاتست": 1338,
      "الح": 1339,
      "لّو": 1340,
      "دير": 1341,
      "ملك": 1342,
      "نشء": 1343,
      "حدّدو": 1344,
      "khdem": 1345,
      "عرضو": 1346,
      "3rdo": 1347,
      "شكّل": 1348,
      "bdaw": 1349,
      "3na": 1350,
      "fer": 1351,
      "gg": 1352,
      "lmi": 1353,
      "أمر": 1354,
      "تز": 1355,
      "حتار": 1356,
      "خطّ": 1357,
      "قتل": 1358,
      "التا": 1359,
      "arf": 1360,
      "اري": 1361,
      "9ol": 1362,
      "سّس": 1363,
      "سّع": 1364,
      "7owwel": 1365,
      "br8": 1366,
      "jaweb": 1367,
      "ستوعب": 1368,
      "ftard": 1369,
      "تفاعل": 1370,
      "nd": 1371,
      "nti": 1372,
      "rna": 1373,
      "أُ": 1374,
      "إش": 1375,
      "ملي": 1376,
      "وّي": 1377,
      "معا": 1378,
      "llem": 1379,
      "قول": 1380,
      "قولب": 1381,
      "e88": 1382,
      "jm3o": 1383,
      "حبس": 1384,
      "وڭف": 1385,
      "رد": 1386,
      "عتا": 1387,
      "فهمو": 1388,
      "قرا": 1389,
      "كاتو": 1390,
      "mos": 1391,
      "wwa": 1392,
      "kant": 1393,
      "mam": 1394,
      "dia": 1395,
      "ليا": 1396,
      "rreb": 1397,
      "ncher": 1398,
      "ejje3": 1399,
      "تحكّم": 1400,
      "وضّح": 1401,
      "3an": 1402,
      "bt": 1403,
      "sba": 1404,
      "جغ": 1405,
      "قص": 1406,
      "مأ": 1407,
      "موّل": 1408,
      "taar": 1409,
      "katw": 1410,
      "ghatw": 1411,
      "elleb": 1412,
      "fa3": 1413,
      "mne3": 1414,
      "فرض": 1415,
      "كون": 1416,
      "nche2": 1417,
      "قلّب": 1418,
      "eso": 1419,
      "msta": 1420,
      "zn": 1421,
      "إس": 1422,
      "تمشّ": 1423,
      "انو": 1424,
      "ddm": 1425,
      "moww": 1426,
      "وّلي": 1427,
      "ghayt": 1428,
      "ghant": 1429,
      "ebb": 1430,
      "رية": 1431,
      "ellef": 1432,
      "ديال": 1433,
      "تاقد": 1434,
      "تحمّلو": 1435,
      "توقّعو": 1436,
      "rtteb": 1437,
      "2etter": 1438,
      "3aa": 1439,
      "rtab": 1440,
      "yn": 1441,
      "قار": 1442,
      "كم": 1443,
      "ملا": 1444,
      "هبط": 1445,
      "كاتص": 1446,
      "غاتص": 1447,
      "لّفو": 1448,
      "كايش": 1449,
      "كانش": 1450,
      "غانش": 1451,
      "غايش": 1452,
      "ريو": 1453,
      "ssi": 1454,
      "لاص": 1455,
      "llf": 1456,
      "e22": 1457,
      "7r": 1458,
      "8ar": 1459,
      "fch": 1460,
      "fro": 1461,
      "zat": 1462,
      "تخلّ": 1463,
      "خبر": 1464,
      "ddedo": 1465,
      "وّجو": 1466,
      "wwed": 1467,
      "غاين": 1468,
      "ارف": 1469,
      "tts": 1470,
      "ria": 1471,
      "kklo": 1472,
      "abdel": 1473,
      "تجا": 1474,
      "ffdo": 1475,
      "bbeb": 1476,
      "حدّر": 1477,
      "ختارو": 1478,
      "sle7": 1479,
      "ntej": 1480,
      "وقع": 1481,
      "3aljo": 1482,
      "dfe3": 1483,
      "طلبو": 1484,
      "d3em": 1485,
      "ءتّرو": 1486,
      "fkker": 1487,
      "متاتل": 1488,
      "نخارط": 1489,
      "2tt": 1490,
      "3ef": 1491,
      "9ti": 1492,
      "bla": 1493,
      "bll": 1494,
      "f8em": 1495,
      "gb": 1496,
      "lay": 1497,
      "sar": 1498,
      "ur": 1499,
      "أسا": 1500,
      "جة": 1501,
      "جين": 1502,
      "دري": 1503,
      "ستي": 1504,
      "ضبط": 1505,
      "ڭب": 1506,
      "khffef": 1507,
      "غاتو": 1508,
      "الا": 1509,
      "wwej": 1510,
      "ارتا": 1511,
      "na9": 1512,
      "معو": 1513,
      "steb3": 1514,
      "rref": 1515,
      "برز": 1516,
      "قيا": 1517,
      "wia": 1518,
      "tkhell": 1519,
      "saad": 1520,
      "ellelo": 1521,
      "فاجر": 1522,
      "لاحض": 1523,
      "رتابط": 1524,
      "derr": 1525,
      "ffa": 1526,
      "kar": 1527,
      "kem": 1528,
      "lto": 1529,
      "par": 1530,
      "rch": 1531,
      "slo": 1532,
      "zin": 1533,
      "تصو": 1534,
      "جسّ": 1535,
      "زين": 1536,
      "سجّل": 1537,
      "فزّ": 1538,
      "قنع": 1539,
      "مپ": 1540,
      "khar": 1541,
      "كايح": 1542,
      "tt7": 1543,
      "بّت": 1544,
      "sog": 1545,
      "jj3o": 1546,
      "9olb": 1547,
      "تحرّك": 1548,
      "تعوّ": 1549,
      "سامح": 1550,
      "فضّ": 1551,
      "ستال": 1552,
      "ejjlo": 1553,
      "نقد": 1554,
      "شوف": 1555,
      "7t": 1556,
      "799e9": 1557,
      "9ay": 1558,
      "9na": 1559,
      "nni": 1560,
      "zen": 1561,
      "تقدّ": 1562,
      "خسخ": 1563,
      "زرب": 1564,
      "سمي": 1565,
      "طرا": 1566,
      "كرو": 1567,
      "ّر": 1568,
      "انيو": 1569,
      "erv": 1570,
      "kann": 1571,
      "كانح": 1572,
      "ghayn": 1573,
      "ghann": 1574,
      "غانح": 1575,
      "غايح": 1576,
      "لوكي": 1577,
      "lah": 1578,
      "raj": 1579,
      "raw": 1580,
      "stent": 1581,
      "زيد": 1582,
      "تنفّ": 1583,
      "ghader": 1584,
      "ania": 1585,
      "gadd": 1586,
      "9dder": 1587,
      "fajer": 1588,
      "9aate3": 1589,
      "الله": 1590,
      "7taf": 1591,
      "bso": 1592,
      "bni": 1593,
      "lf": 1594,
      "sbi": 1595,
      "wiw": 1596,
      "إر": 1597,
      "بري": 1598,
      "نف": 1599,
      "enz": 1600,
      "yyd": 1601,
      "ريب": 1602,
      "تعا": 1603,
      "tb3o": 1604,
      "كاتّس": 1605,
      "غاتّس": 1606,
      "n9lo": 1607,
      "ستاب": 1608,
      "tlbo": 1609,
      "ختالفو": 1610,
      "جرّو": 1611,
      "جرّبو": 1612,
      "علنو": 1613,
      "tchab": 1614,
      "khdmo": 1615,
      "3lno": 1616,
      "khtaro": 1617,
      "bddlo": 1618,
      "عند": 1619,
      "عندو": 1620,
      "ڭادّ": 1621,
      "kmmlo": 1622,
      "7edded": 1623,
      "berrer": 1624,
      "ik": 1625,
      "jem": 1626,
      "mmi": 1627,
      "درّب": 1628,
      "عارض": 1629,
      "كن": 1630,
      "مكّ": 1631,
      "هج": 1632,
      "mota": 1633,
      "lou": 1634,
      "رّي": 1635,
      "sala": 1636,
      "maw": 1637,
      "maar": 1638,
      "bou": 1639,
      "bal": 1640,
      "eff": 1641,
      "عيا": 1642,
      "ربط": 1643,
      "mme3": 1644,
      "ezerv": 1645,
      "zid": 1646,
      "ttaab": 1647,
      "chof": 1648,
      "aaf9": 1649,
      "زعج": 1650,
      "تدخّل": 1651,
      "wgg": 1652,
      "حقّق": 1653,
      "rje3": 1654,
      "زرڤ": 1655,
      "arrar": 1656,
      "ddabz": 1657,
      "سيفط": 1658,
      "8enn": 1659,
      "2aa": 1660,
      "3do": 1661,
      "3chrin": 1662,
      "fra": 1663,
      "ls": 1664,
      "l3a": 1665,
      "mtt": 1666,
      "pri": 1667,
      "بن": 1668,
      "تبادل": 1669,
      "جح": 1670,
      "داب": 1671,
      "زاي": 1672,
      "صح": 1673,
      "صلو": 1674,
      "لقا": 1675,
      "ماو": 1676,
      "chch": 1677,
      "ddro": 1678,
      "الات": 1679,
      "sam": 1680,
      "يّات": 1681,
      "sso": 1682,
      "dikl": 1683,
      "baar": 1684,
      "تسخسخ": 1685,
      "ديكل": 1686,
      "bir": 1687,
      "ابه": 1688,
      "ja8": 1689,
      "fia": 1690,
      "9iyy": 1691,
      "bbr": 1692,
      "درد": 1693,
      "ttaf": 1694,
      "e8l": 1695,
      "ضاع": 1696,
      "طلق": 1697,
      "t2e9": 1698,
      "طارد": 1699,
      "خصّص": 1700,
      "2ejjel": 1701,
      "8m": 1702,
      "bto": 1703,
      "bghi": 1704,
      "ikh": 1705,
      "zay": 1706,
      "تمن": 1707,
      "خمس": 1708,
      "دق": 1709,
      "زة": 1710,
      "ضرو": 1711,
      "طاب": 1712,
      "مم": 1713,
      "مرو": 1714,
      "ند": 1715,
      "ّف": 1716,
      "ati": 1717,
      "لّقو": 1718,
      "wwt": 1719,
      "tir": 1720,
      "موا": 1721,
      "3aard": 1722,
      "ra9": 1723,
      "yyat": 1724,
      "e3l": 1725,
      "tst": 1726,
      "بّو": 1727,
      "wad": 1728,
      "tar7": 1729,
      "stab": 1730,
      "kon": 1731,
      "t3ll": 1732,
      "nchr": 1733,
      "tdaa": 1734,
      "towwe9": 1735,
      "la7d": 1736,
      "8reb": 1737,
      "فحص": 1738,
      "خدمو": 1739,
      "طبّق": 1740,
      "سكن": 1741,
      "9r": 1742,
      "9t": 1743,
      "9ar": 1744,
      "jaa": 1745,
      "kro": 1746,
      "n3o": 1747,
      "ءّ": 1748,
      "بتا": 1749,
      "تغ": 1750,
      "تمر": 1751,
      "تكر": 1752,
      "قاي": 1753,
      "لص": 1754,
      "متي": 1755,
      "ميو": 1756,
      "نسا": 1757,
      "taa": 1758,
      "wwli": 1759,
      "كايس": 1760,
      "توفّ": 1761,
      "رّرو": 1762,
      "لاء": 1763,
      "9al": 1764,
      "9aar": 1765,
      "ستبعد": 1766,
      "t7mm": 1767,
      "t7emmlo": 1768,
      "3iyyen": 1769,
      "sta7": 1770,
      "fi9": 1771,
      "تجنّ": 1772,
      "tbat": 1773,
      "نّڭ": 1774,
      "bber": 1775,
      "e2n": 1776,
      "شارك": 1777,
      "حلّو": 1778,
      "ركّزو": 1779,
      "khtalf": 1780,
      "staghell": 1781,
      "3jeb": 1782,
      "khrej": 1783,
      "2kk": 1784,
      "88el": 1785,
      "bri": 1786,
      "ndo": 1787,
      "san": 1788,
      "wat": 1789,
      "حن": 1790,
      "رجّع": 1791,
      "زات": 1792,
      "شفو": 1793,
      "طابق": 1794,
      "عان": 1795,
      "قف": 1796,
      "كري": 1797,
      "لاي": 1798,
      "mona": 1799,
      "em2": 1800,
      "loww": 1801,
      "mad": 1802,
      "raf": 1803,
      "راإ": 1804,
      "تسلّق": 1805,
      "t7kk": 1806,
      "staf": 1807,
      "stal": 1808,
      "mtedd": 1809,
      "tw99": 1810,
      "ستافزّ": 1811,
      "3awed": 1812,
      "متدّ": 1813,
      "tre22": 1814,
      "قلّل": 1815,
      "khaat": 1816,
      "brz": 1817,
      "زامن": 1818,
      "zzez": 1819,
      "z3ej": 1820,
      "تطلّ": 1821,
      "8bet": 1822,
      "tjwwj": 1823,
      "سخّن": 1824,
      "3la": 1825,
      "dmo": 1826,
      "jar": 1827,
      "kes": 1828,
      "l9a": 1829,
      "tyy": 1830,
      "tri": 1831,
      "yr": 1832,
      "ykh": 1833,
      "جر": 1834,
      "جات": 1835,
      "حتي": 1836,
      "زمو": 1837,
      "عت": 1838,
      "غيو": 1839,
      "غير": 1840,
      "قلي": 1841,
      "قطّ": 1842,
      "كبو": 1843,
      "موّ": 1844,
      "مري": 1845,
      "مصّ": 1846,
      "نعو": 1847,
      "هنّ": 1848,
      "وصل": 1849,
      "att": 1850,
      "khay": 1851,
      "ini": 1852,
      "mo7a": 1853,
      "kaykh": 1854,
      "kankh": 1855,
      "كانس": 1856,
      "ghaykh": 1857,
      "ghankh": 1858,
      "غانس": 1859,
      "غايس": 1860,
      "sal": 1861,
      "يّرو": 1862,
      "edda": 1863,
      "tsen": 1864,
      "lle9": 1865,
      "waj": 1866,
      "was": 1867,
      "waw": 1868,
      "9od": 1869,
      "mni": 1870,
      "تحا": 1871,
      "stam": 1872,
      "مشي": 1873,
      "khaf": 1874,
      "tnff": 1875,
      "fkkro": 1876,
      "وجّه": 1877,
      "kowwen": 1878,
      "ghowwet": 1879,
      "hi": 1880,
      "maa": 1881,
      "medd": 1882,
      "mech": 1883,
      "sri": 1884,
      "smi": 1885,
      "zmo": 1886,
      "zda": 1887,
      "أس": 1888,
      "باين": 1889,
      "جبو": 1890,
      "جفّ": 1891,
      "صف": 1892,
      "ضات": 1893,
      "طات": 1894,
      "عجب": 1895,
      "غطّ": 1896,
      "فقو": 1897,
      "كلي": 1898,
      "مرا": 1899,
      "هرو": 1900,
      "پارتا": 1901,
      "انة": 1902,
      "كاتخ": 1903,
      "غاتخ": 1904,
      "elli": 1905,
      "mowwel": 1906,
      "to99": 1907,
      "tiyy": 1908,
      "nach": 1909,
      "rou": 1910,
      "ttww": 1911,
      "مّا": 1912,
      "edder": 1913,
      "did": 1914,
      "kka": 1915,
      "9as": 1916,
      "ديد": 1917,
      "bia": 1918,
      "t7rr": 1919,
      "fid": 1920,
      "فيا": 1921,
      "فيق": 1922,
      "fred": 1923,
      "طوّق": 1924,
      "نّاو": 1925,
      "ضوبل": 1926,
      "كمّلي": 1927,
      "عاونو": 1928,
      "تشط": 1929,
      "sme3": 1930,
      "تخيّ": 1931,
      "mlek": 1932,
      "2amer": 1933,
      "tfkk": 1934,
      "khkhen": 1935,
      "ghre9": 1936,
      "tsowwer": 1937,
      "tfa3": 1938,
      "f7es": 1939,
      "zreb": 1940,
      "mtatel": 1941,
      "ghleb": 1942,
      "8ezz": 1943,
      "2e9": 1944,
      "7ess": 1945,
      "8ro": 1946,
      "dto": 1947,
      "gr": 1948,
      "jzo": 1949,
      "kta": 1950,
      "kbo": 1951,
      "mri": 1952,
      "m3o": 1953,
      "zno": 1954,
      "جزو": 1955,
      "زنو": 1956,
      "شدو": 1957,
      "ضرّ": 1958,
      "قاب": 1959,
      "كت": 1960,
      "ماي": 1961,
      "هلو": 1962,
      "katj": 1963,
      "ghatj": 1964,
      "mokh": 1965,
      "وّنو": 1966,
      "wwdo": 1967,
      "emmno": 1968,
      "رّج": 1969,
      "tt3": 1970,
      "yyro": 1971,
      "rib": 1972,
      "llfo": 1973,
      "تستا": 1974,
      "بّرو": 1975,
      "sou": 1976,
      "jjlo": 1977,
      "دافعو": 1978,
      "تارفو": 1979,
      "فاعل": 1980,
      "errko": 1981,
      "نّي": 1982,
      "tabr": 1983,
      "bbro": 1984,
      "jib": 1985,
      "tdff": 1986,
      "جيب": 1987,
      "mchi": 1988,
      "rb7": 1989,
      "rbe7": 1990,
      "نقلو": 1991,
      "صلحو": 1992,
      "غادرو": 1993,
      "dowwro": 1994,
      "طيّبو": 1995,
      "jawb": 1996,
      "jawbo": 1997,
      "منّا": 1998,
      "ميّزو": 1999,
      "ڭابلو": 2000,
      "aaljo": 2001,
      "راجعو": 2002,
      "فرڭعو": 2003,
      "gablo": 2004,
      "frg3o": 2005,
      "هزّو": 2006,
      "غوّتو": 2007,
      "miyyzo": 2008,
      "تضمّن": 2009,
      "هّلو": 2010,
      "3tarf": 2011,
      "sift": 2012,
      "مپري": 2013,
      "e3lel": 2014,
      "2ess": 2015,
      "2ekk": 2016,
      "fekk": 2017,
      "jin": 2018,
      "kel": 2019,
      "tay": 2020,
      "عزّ": 2021,
      "غمّ": 2022,
      "فاي": 2023,
      "لح": 2024,
      "لڭ": 2025,
      "وي": 2026,
      "ڭد": 2027,
      "ghmm": 2028,
      "chaa": 2029,
      "تابر": 2030,
      "mol": 2031,
      "mosta": 2032,
      "لّمو": 2033,
      "kayr": 2034,
      "كاير": 2035,
      "sali": 2036,
      "راب": 2037,
      "tskhs": 2038,
      "mil": 2039,
      "كّل": 2040,
      "بّي": 2041,
      "rrfo": 2042,
      "مستا": 2043,
      "n9ed": 2044,
      "twess": 2045,
      "twett": 2046,
      "t3e88": 2047,
      "tkhyy": 2048,
      "شرح": 2049,
      "tchbb": 2050,
      "tjnn": 2051,
      "drd": 2052,
      "w9f": 2053,
      "gls": 2054,
      "gles": 2055,
      "menna": 2056,
      "lliw": 2057,
      "chark": 2058,
      "jrreb": 2059,
      "kre8": 2060,
      "wgf": 2061,
      "حتافض": 2062,
      "tbbe9": 2063,
      "لّغو": 2064,
      "خفّف": 2065,
      "مناسب": 2066,
      "تساء": 2067,
      "fhem": 2068,
      "tsara7": 2069,
      "t7ekkem": 2070,
      "7tar": 2071,
      "nk": 2072,
      "rri": 2073,
      "t3a": 2074,
      "wer": 2075,
      "بلو": 2076,
      "برّر": 2077,
      "جيو": 2078,
      "دمّ": 2079,
      "ضرب": 2080,
      "علو": 2081,
      "عيّ": 2082,
      "فاو": 2083,
      "كرا": 2084,
      "كسو": 2085,
      "كسب": 2086,
      "ملو": 2087,
      "مدّو": 2088,
      "همي": 2089,
      "dou": 2090,
      "mach": 2091,
      "rad": 2092,
      "دوقّ": 2093,
      "ميا": 2094,
      "قود": 2095,
      "تارض": 2096,
      "بير": 2097,
      "sia": 2098,
      "سيا": 2099,
      "9ia": 2100,
      "tle9": 2101,
      "واجه": 2102,
      "towwel": 2103,
      "tcht": 2104,
      "حّب": 2105,
      "تصرّف": 2106,
      "مجمو": 2107,
      "9ddem": 2108,
      "فاجأ": 2109,
      "7awl": 2110,
      "تمنّا": 2111,
      "3ar": 2112,
      "7aa": 2113,
      "bgha": 2114,
      "co": 2115,
      "if": 2116,
      "jb": 2117,
      "lta7": 2118,
      "mg": 2119,
      "mkk": 2120,
      "mdoww": 2121,
      "nr": 2122,
      "sli": 2123,
      "أمن": 2124,
      "تفكّر": 2125,
      "جل": 2126,
      "حرّك": 2127,
      "خير": 2128,
      "دمو": 2129,
      "دكّ": 2130,
      "زدا": 2131,
      "صمّ": 2132,
      "صاوب": 2133,
      "ضمن": 2134,
      "طين": 2135,
      "عتارف": 2136,
      "كرّ": 2137,
      "كوّن": 2138,
      "نر": 2139,
      "ول": 2140,
      "ون": 2141,
      "وّرو": 2142,
      "kanr": 2143,
      "ghanr": 2144,
      "غاير": 2145,
      "مونا": 2146,
      "اور": 2147,
      "do9": 2148,
      "رّا": 2149,
      "lab": 2150,
      "ناق": 2151,
      "tselle9": 2152,
      "bas": 2153,
      "منعو": 2154,
      "wah": 2155,
      "mn3o": 2156,
      "تحت": 2157,
      "7owwlo": 2158,
      "فّدو": 2159,
      "طوي": 2160,
      "3awd": 2161,
      "yaw": 2162,
      "zido": 2163,
      "خلّطو": 2164,
      "nchro": 2165,
      "nch2o": 2166,
      "ترج": 2167,
      "زيدو": 2168,
      "ttasel": 2169,
      "خافض": 2170,
      "choww": 2171,
      "شاف": 2172,
      "طاش": 2173,
      "sebb": 2174,
      "df3o": 2175,
      "ntakh": 2176,
      "stowr": 2177,
      "bano": 2178,
      "دعمو": 2179,
      "d3mo": 2180,
      "dbet": 2181,
      "صبّو": 2182,
      "7awel": 2183,
      "ftardo": 2184,
      "فتارضو": 2185,
      "دفعو": 2186,
      "لحّو": 2187,
      "2ettro": 2188,
      "مفرو": 2189,
      "rkkez": 2190,
      "dyye3": 2191,
      "دوّرو": 2192,
      "tserref": 2193,
      "kchef": 2194,
      "rfed": 2195,
      "tdkhkhel": 2196,
      "3to": 2197,
      "akh": 2198,
      "m8": 2199,
      "mti": 2200,
      "nw": 2201,
      "بة": 2202,
      "حش": 2203,
      "حل": 2204,
      "خسر": 2205,
      "دخل": 2206,
      "فرو": 2207,
      "فري": 2208,
      "كة": 2209,
      "لت": 2210,
      "لعب": 2211,
      "همّ": 2212,
      "هدّد": 2213,
      "ڭي": 2214,
      "انيا": 2215,
      "chta": 2216,
      "ta9a": 2217,
      "mon": 2218,
      "wwiw": 2219,
      "كانر": 2220,
      "غانر": 2221,
      "ttb": 2222,
      "tter": 2223,
      "daw": 2224,
      "دود": 2225,
      "bab": 2226,
      "bi3": 2227,
      "ستل": 2228,
      "t7o": 2229,
      "قّق": 2230,
      "قاس": 2231,
      "kom": 2232,
      "emmli": 2233,
      "ساهم": 2234,
      "مشيو": 2235,
      "ستاهل": 2236,
      "kal": 2237,
      "واحد": 2238,
      "e8mo": 2239,
      "sme7": 2240,
      "8am": 2241,
      "ntjo": 2242,
      "حقّقو": 2243,
      "تواجه": 2244,
      "rttbo": 2245,
      "rkkzo": 2246,
      "فرشخ": 2247,
      "wedde7": 2248,
      "قتارح": 2249,
      "2emmen": 2250,
      "9to": 2251,
      "dkk": 2252,
      "derreb": 2253,
      "jat": 2254,
      "بت": 2255,
      "بدّل": 2256,
      "تباط": 2257,
      "حبّ": 2258,
      "ضحك": 2259,
      "غض": 2260,
      "قبو": 2261,
      "قهو": 2262,
      "لتاح": 2263,
      "ڭلو": 2264,
      "الج": 2265,
      "وّض": 2266,
      "tou": 2267,
      "ارات": 2268,
      "اوي": 2269,
      "dor": 2270,
      "رّع": 2271,
      "tteb": 2272,
      "ed3i": 2273,
      "ra7": 2274,
      "رافق": 2275,
      "كّا": 2276,
      "ستنز": 2277,
      "تعهّ": 2278,
      "بيا": 2279,
      "فّز": 2280,
      "ملة": 2281,
      "t98": 2282,
      "وازن": 2283,
      "tdemmen": 2284,
      "rbet": 2285,
      "lbs": 2286,
      "lbes": 2287,
      "eddedi": 2288,
      "3ln": 2289,
      "9bt": 2290,
      "رجعو": 2291,
      "تصوّر": 2292,
      "تاقل": 2293,
      "مكن": 2294,
      "jrrb": 2295,
      "تناقش": 2296,
      "naach": 2297,
      "sawb": 2298,
      "impri": 2299,
      "طلّع": 2300,
      "stow3eb": 2301,
      "تحاطّ": 2302,
      "7na": 2303,
      "eg": 2304,
      "har": 2305,
      "kt": 2306,
      "kmo": 2307,
      "mdo": 2308,
      "sro": 2309,
      "war": 2310,
      "w99": 2311,
      "zaa": 2312,
      "ءجّل": 2313,
      "جاب": 2314,
      "جاوبو": 2315,
      "سوّل": 2316,
      "صلي": 2317,
      "صوّر": 2318,
      "طري": 2319,
      "طمء": 2320,
      "قري": 2321,
      "قسّ": 2322,
      "كشف": 2323,
      "هلا": 2324,
      "وزّ": 2325,
      "ڭيّد": 2326,
      "دّر": 2327,
      "اليو": 2328,
      "ارة": 2329,
      "dab": 2330,
      "لاق": 2331,
      "لام": 2332,
      "sogo": 2333,
      "jja": 2334,
      "دامج": 2335,
      "ماس": 2336,
      "بيع": 2337,
      "3ia": 2338,
      "emmem": 2339,
      "nia": 2340,
      "ستاحقّ": 2341,
      "trj": 2342,
      "خلّي": 2343,
      "نشأ": 2344,
      "تبعو": 2345,
      "sl7o": 2346,
      "8aar": 2347,
      "عبرو": 2348,
      "مقبو": 2349,
      "nng": 2350,
      "9ddro": 2351,
      "hou": 2352,
      "خدّمو": 2353,
      "fkkr": 2354,
      "شكّلو": 2355,
      "رتّبو": 2356,
      "رفضو": 2357,
      "شدّدو": 2358,
      "twe993o": 2359,
      "تحكّمو": 2360,
      "bloki": 2361,
      "ءكّد": 2362,
      "twaj": 2363,
      "حساب": 2364,
      "ڭبض": 2365,
      "2e8": 2366,
      "7an": 2367,
      "9an": 2368,
      "bbo": 2369,
      "deb": 2370,
      "dra": 2371,
      "fay": 2372,
      "fddel": 2373,
      "ij": 2374,
      "kin": 2375,
      "llo": 2376,
      "sed": 2377,
      "th": 2378,
      "بزّ": 2379,
      "جهو": 2380,
      "حكّ": 2381,
      "خب": 2382,
      "صيّد": 2383,
      "علّق": 2384,
      "غرب": 2385,
      "غبر": 2386,
      "كلو": 2387,
      "مدّد": 2388,
      "همل": 2389,
      "ّا": 2390,
      "تامل": 2391,
      "المي": 2392,
      "mod": 2393,
      "وّيو": 2394,
      "توتّر": 2395,
      "lom": 2396,
      "ناس": 2397,
      "ناسب": 2398,
      "ريف": 2399,
      "tsta": 2400,
      "لاقي": 2401,
      "تسلّف": 2402,
      "تسنّا": 2403,
      "دية": 2404,
      "mnna": 2405,
      "تعلّق": 2406,
      "محلو": 2407,
      "tb3": 2408,
      "سيطر": 2409,
      "كوم": 2410,
      "فضح": 2411,
      "نشط": 2412,
      "واس": 2413,
      "يرة": 2414,
      "تشابه": 2415,
      "عرف": 2416,
      "9bet": 2417,
      "نسخ": 2418,
      "وقفو": 2419,
      "w9fo": 2420,
      "مارس": 2421,
      "khsses": 2422,
      "حتجّ": 2423,
      "le77": 2424,
      "ارّار": 2425,
      "وصف": 2426,
      "تساراح": 2427,
      "تعوّد": 2428,
      "7da": 2429,
      "8dded": 2430,
      "km": 2431,
      "lkh": 2432,
      "lghi": 2433,
      "mli": 2434,
      "mss": 2435,
      "sbb": 2436,
      "tani": 2437,
      "wsl": 2438,
      "yb": 2439,
      "zar": 2440,
      "zzi": 2441,
      "ءمّن": 2442,
      "بال": 2443,
      "تاي": 2444,
      "حدا": 2445,
      "ديو": 2446,
      "شم": 2447,
      "صدر": 2448,
      "صبغ": 2449,
      "علي": 2450,
      "غسل": 2451,
      "دّلي": 2452,
      "kayk": 2453,
      "nas": 2454,
      "ttl": 2455,
      "ttekk": 2456,
      "ssro": 2457,
      "tsnna": 2458,
      "كّد": 2459,
      "عود": 2460,
      "دياول": 2461,
      "ستخرج": 2462,
      "stel": 2463,
      "جّلي": 2464,
      "tarf": 2465,
      "دام": 2466,
      "باس": 2467,
      "mtlo": 2468,
      "t9dda": 2469,
      "ترين": 2470,
      "tkhella": 2471,
      "ختاري": 2472,
      "قلّع": 2473,
      "rbto": 2474,
      "هام": 2475,
      "غامر": 2476,
      "w93": 2477,
      "تابه": 2478,
      "tafd": 2479,
      "تدفّ": 2480,
      "صرط": 2481,
      "حطّو": 2482,
      "9eddro": 2483,
      "قشّر": 2484,
      "سمعو": 2485,
      "تمنّاو": 2486,
      "بغيو": 2487,
      "طالب": 2488,
      "مطلو": 2489,
      "فشل": 2490,
      "متّل": 2491,
      "طراسّ": 2492,
      "8aa": 2493,
      "9sm": 2494,
      "de3": 2495,
      "est": 2496,
      "j7": 2497,
      "n8": 2498,
      "nay": 2499,
      "raa": 2500,
      "tra": 2501,
      "tejj": 2502,
      "wo": 2503,
      "wdd": 2504,
      "waaj": 2505,
      "ءمّ": 2506,
      "تطوّر": 2507,
      "حفر": 2508,
      "خضر": 2509,
      "زڭل": 2510,
      "سري": 2511,
      "شّ": 2512,
      "شدّد": 2513,
      "عبو": 2514,
      "عضّ": 2515,
      "قال": 2516,
      "كتب": 2517,
      "نين": 2518,
      "وج": 2519,
      "ڭدّ": 2520,
      "katgh": 2521,
      "ghatgh": 2522,
      "mora": 2523,
      "wwr": 2524,
      "dod": 2525,
      "3ad": 2526,
      "ناش": 2527,
      "saf": 2528,
      "lil": 2529,
      "ram": 2530,
      "راقب": 2531,
      "ba3": 2532,
      "تسمع": 2533,
      "ديا": 2534,
      "ستهل": 2535,
      "ستخدم": 2536,
      "stes": 2537,
      "stet": 2538,
      "st9b": 2539,
      "stenz": 2540,
      "ste8l": 2541,
      "rrk": 2542,
      "تعلّم": 2543,
      "jab": 2544,
      "jah": 2545,
      "تجوّجو": 2546,
      "tbnna": 2547,
      "قدّمو": 2548,
      "twffa": 2549,
      "ستاغل": 2550,
      "خلّصو": 2551,
      "نشرو": 2552,
      "حافض": 2553,
      "ترجم": 2554,
      "خاطر": 2555,
      "حّد": 2556,
      "chofo": 2557,
      "شوفو": 2558,
      "m9bo": 2559,
      "dffa": 2560,
      "زعم": 2561,
      "ستورد": 2562,
      "rj3o": 2563,
      "وضّحو": 2564,
      "kemmelo": 2565,
      "صوّت": 2566,
      "raaj3": 2567,
      "daaf3": 2568,
      "برزط": 2569,
      "جسّد": 2570,
      "تعامل": 2571,
      "ستابق": 2572,
      "تجنّب": 2573,
      "موناسي": 2574,
      "3en": 2575,
      "7ar": 2576,
      "7eyy": 2577,
      "glo": 2578,
      "kri": 2579,
      "sef": 2580,
      "tlo": 2581,
      "tll": 2582,
      "te7": 2583,
      "tbad": 2584,
      "way": 2585,
      "yk": 2586,
      "yar": 2587,
      "zza": 2588,
      "اف": 2589,
      "بلّغ": 2590,
      "تخلّص": 2591,
      "تزامن": 2592,
      "حبو": 2593,
      "حلم": 2594,
      "خاي": 2595,
      "ردّ": 2596,
      "سكّ": 2597,
      "شجّع": 2598,
      "صحي": 2599,
      "صطا": 2600,
      "عبّر": 2601,
      "غال": 2602,
      "قيّ": 2603,
      "نتي": 2604,
      "نفّد": 2605,
      "ولّف": 2606,
      "تافض": 2607,
      "kank": 2608,
      "ghayk": 2609,
      "ghank": 2610,
      "sa3a": 2611,
      "sam7": 2612,
      "maj": 2613,
      "mali": 2614,
      "damj": 2615,
      "sse7": 2616,
      "معاو": 2617,
      "mia": 2618,
      "لاقا": 2619,
      "ليل": 2620,
      "sowwer": 2621,
      "rrbo": 2622,
      "سّرو": 2623,
      "تحدّ": 2624,
      "etti": 2625,
      "sir": 2626,
      "محا": 2627,
      "mmen": 2628,
      "msro": 2629,
      "طوّل": 2630,
      "ترءّ": 2631,
      "kia": 2632,
      "esso": 2633,
      "جامع": 2634,
      "mati": 2635,
      "سرق": 2636,
      "زاع": 2637,
      "tker": 2638,
      "بحت": 2639,
      "yter": 2640,
      "77e7": 2641,
      "dbto": 2642,
      "وجّد": 2643,
      "دّابز": 2644,
      "خطّط": 2645,
      "parta": 2646,
      "تنفّس": 2647,
      "bj": 2648,
      "bell": 2649,
      "dkh": 2650,
      "dbo": 2651,
      "frr": 2652,
      "iti": 2653,
      "kso": 2654,
      "kab": 2655,
      "may": 2656,
      "ne9": 2657,
      "sna": 2658,
      "wtt": 2659,
      "zzo": 2660,
      "أا": 2661,
      "أتّر": 2662,
      "بني": 2663,
      "خرب": 2664,
      "دبو": 2665,
      "زلي": 2666,
      "شفر": 2667,
      "صرو": 2668,
      "عرّف": 2669,
      "غلي": 2670,
      "قلو": 2671,
      "قتاب": 2672,
      "قيّد": 2673,
      "كبّر": 2674,
      "لڭا": 2675,
      "يد": 2676,
      "يف": 2677,
      "ata": 2678,
      "chat": 2679,
      "ddmi": 2680,
      "ine": 2681,
      "mowa": 2682,
      "وّش": 2683,
      "wwjo": 2684,
      "اويين": 2685,
      "la9": 2686,
      "la9a": 2687,
      "ttw": 2688,
      "يّني": 2689,
      "yyni": 2690,
      "dak": 2691,
      "diin": 2692,
      "diro": 2693,
      "بّد": 2694,
      "ديرو": 2695,
      "stfs": 2696,
      "ste2n": 2697,
      "rrf": 2698,
      "jam3": 2699,
      "فيد": 2700,
      "frez": 2701,
      "ffez": 2702,
      "مليو": 2703,
      "مرتا": 2704,
      "كافح": 2705,
      "ضاهر": 2706,
      "زلق": 2707,
      "بحال": 2708,
      "ڭول": 2709,
      "tna9ch": 2710,
      "نجح": 2711,
      "tsa2": 2712,
      "تعاونو": 2713,
      "قاطعو": 2714,
      "eyyeb": 2715,
      "3jbo": 2716,
      "دفن": 2717,
      "mfro": 2718,
      "ghaamer": 2719,
      "تقاعد": 2720,
      "نقّص": 2721,
      "كتاسب": 2722,
      "كتاشف": 2723,
      "nkhart": 2724,
      "تجاهل": 2725,
      "steb3ed": 2726,
      "stentej": 2727,
      "مكّن": 2728,
      "دردش": 2729,
      "ضاعف": 2730,
      "3aalj": 2731,
      "7en": 2732,
      "7ell": 2733,
      "7sb": 2734,
      "7e99e9": 2735,
      "88lo": 2736,
      "9ell": 2737,
      "bti": 2738,
      "ida": 2739,
      "ken": 2740,
      "lha": 2741,
      "sedd": 2742,
      "tro": 2743,
      "أجّل": 2744,
      "أمرو": 2745,
      "اش": 2746,
      "تاني": 2747,
      "حجز": 2748,
      "خزن": 2749,
      "زوّل": 2750,
      "زرّب": 2751,
      "صري": 2752,
      "ضح": 2753,
      "ضعو": 2754,
      "ضمّن": 2755,
      "طب": 2756,
      "عبر": 2757,
      "فلو": 2758,
      "قسمو": 2759,
      "كين": 2760,
      "كار": 2761,
      "كلّف": 2762,
      "لغي": 2763,
      "مقلّ": 2764,
      "هدم": 2765,
      "يسّر": 2766,
      "anna": 2767,
      "chari": 2768,
      "takb": 2769,
      "khti": 2770,
      "kat8": 2771,
      "ghat8": 2772,
      "ddr": 2773,
      "ddli": 2774,
      "الس": 2775,
      "mowwlo": 2776,
      "wwto": 2777,
      "ti9": 2778,
      "موس": 2779,
      "ارفو": 2780,
      "ارضو": 2781,
      "3adi": 2782,
      "3aani": 2783,
      "رّبي": 2784,
      "las": 2785,
      "ttet": 2786,
      "sas": 2787,
      "mala": 2788,
      "مّرو": 2789,
      "rit": 2790,
      "ريا": 2791,
      "da3": 2792,
      "tsellel": 2793,
      "3od": 2794,
      "llmo": 2795,
      "llef": 2796,
      "ba7": 2797,
      "تسلم": 2798,
      "ellbo": 2799,
      "ellfo": 2800,
      "بّتو": 2801,
      "wa9": 2802,
      "جّعي": 2803,
      "سّعو": 2804,
      "tar7o": 2805,
      "تعر": 2806,
      "تعجب": 2807,
      "ماد": 2808,
      "3iyyno": 2809,
      "فرضو": 2810,
      "فّه": 2811,
      "ربع": 2812,
      "ربحو": 2813,
      "ربطو": 2814,
      "mmro": 2815,
      "mm3o": 2816,
      "سافر": 2817,
      "ساعد": 2818,
      "mteddo": 2819,
      "frdo": 2820,
      "مشرو": 2821,
      "tw9": 2822,
      "ستالم": 2823,
      "kaf7": 2824,
      "هوا": 2825,
      "t3ww": 2826,
      "3awdo": 2827,
      "متدّو": 2828,
      "لبسو": 2829,
      "ملكو": 2830,
      "tl3": 2831,
      "نشا": 2832,
      "m7lo": 2833,
      "ختابرو": 2834,
      "صوڭ": 2835,
      "علل": 2836,
      "khafd": 2837,
      "ejj3o": 2838,
      "toww9o": 2839,
      "شرف": 2840,
      "ضّمو": 2841,
      "chir": 2842,
      "2il": 2843,
      "mlko": 2844,
      "aaf9o": 2845,
      "هربو": 2846,
      "2amn": 2847,
      "2amro": 2848,
      "تابطو": 2849,
      "ڭلسو": 2850,
      "glso": 2851,
      "تاقدو": 2852,
      "طلع": 2853,
      "طلقو": 2854,
      "ماتي": 2855,
      "صادق": 2856,
      "زعجو": 2857,
      "khkhno": 2858,
      "نتجو": 2859,
      "غرقو": 2860,
      "z3jo": 2861,
      "حبسو": 2862,
      "ghr9o": 2863,
      "فاجرو": 2864,
      "لاحضو": 2865,
      "حكمو": 2866,
      "faje2": 2867,
      "رتافع": 2868,
      "رتاكب": 2869,
      "la7do": 2870,
      "هرّسو": 2871,
      "بادلو": 2872,
      "قلمو": 2873,
      "حرڭ": 2874,
      "زربو": 2875,
      "8rbo": 2876,
      "8rrso": 2877,
      "غلبو": 2878,
      "قراو": 2879,
      "برهنو": 2880,
      "kowwno": 2881,
      "بانو": 2882,
      "zrbo": 2883,
      "ddabzo": 2884,
      "8bto": 2885,
      "متاتلو": 2886,
      "mtatlo": 2887,
      "ghlbo": 2888,
      "ghowwto": 2889,
      "8ezzo": 2890,
      "rfdo": 2891,
      "raaj3o": 2892,
      "خّلو": 2893,
      "3aardo": 2894,
      "تطوّع": 2895,
      "9olbo": 2896,
      "قولبو": 2897,
      "تمشّا": 2898,
      "فضّلو": 2899,
      "9iyyem": 2900,
      "tbat2": 2901,
      "تطلّب": 2902,
      "tiyyeb": 2903,
      "تخيّل": 2904,
      "3ay": 2905,
      "3fo": 2906,
      "ada": 2907,
      "d7": 2908,
      "emo": 2909,
      "fel": 2910,
      "jemm": 2911,
      "jess": 2912,
      "klo": 2913,
      "kli": 2914,
      "l7o": 2915,
      "mto": 2916,
      "mma": 2917,
      "sla": 2918,
      "ter": 2919,
      "tjo": 2920,
      "t3awen": 2921,
      "wzz": 2922,
      "w77": 2923,
      "ziw": 2924,
      "أكّد": 2925,
      "اس": 2926,
      "بلّ": 2927,
      "تلات": 2928,
      "تغلّ": 2929,
      "حيّ": 2930,
      "خش": 2931,
      "خص": 2932,
      "ختي": 2933,
      "زيو": 2934,
      "سبي": 2935,
      "سهّل": 2936,
      "شة": 2937,
      "فسر": 2938,
      "قرّر": 2939,
      "كدب": 2940,
      "لمو": 2941,
      "متح": 2942,
      "هيا": 2943,
      "وطّ": 2944,
      "وعد": 2945,
      "ڭلب": 2946,
      "ch8er": 2947,
      "taw": 2948,
      "mo9": 2949,
      "monaa": 2950,
      "تور": 2951,
      "توسّع": 2952,
      "موب": 2953,
      "موضو": 2954,
      "ttr": 2955,
      "ra9b": 2956,
      "bos": 2957,
      "بور": 2958,
      "sse9": 2959,
      "tsme3": 2960,
      "3ou": 2961,
      "ell9i": 2962,
      "جّا": 2963,
      "taredd": 2964,
      "فرز": 2965,
      "mmr": 2966,
      "طّر": 2967,
      "twi": 2968,
      "ziyyer": 2969,
      "t9ddem": 2970,
      "واق": 2971,
      "صوني": 2972,
      "tjsses": 2973,
      "8om": 2974,
      "srto": 2975,
      "tkebb": 2976,
      "tfrr": 2977,
      "دّيتي": 2978,
      "تفاو": 2979,
      "tsowwro": 2980,
      "kr8": 2981,
      "حاور": 2982,
      "حتافل": 2983,
      "tfa3l": 2984,
      "9aat3o": 2985,
      "8rres": 2986,
      "khlles": 2987,
      "tachf": 2988,
      "rrero": 2989,
      "ستاغلّو": 2990,
      "frchekh": 2991,
      "khtabr": 2992,
      "خمسة": 2993,
      "lowwen": 2994,
      "stalzem": 2995,
      "قطّع": 2996,
      "2esses": 2997,
      "3li": 2998,
      "7ti": 2999,
      "77a": 3000,
      "8ed": 3001,
      "a3": 3002,
      "af": 3003,
      "fl": 3004,
      "fed": 3005,
      "mes": 3006,
      "sh": 3007,
      "sdd": 3008,
      "ءجّلو": 3009,
      "ءمّنو": 3010,
      "أخ": 3011,
      "بدي": 3012,
      "تلو": 3013,
      "خلي": 3014,
      "خسّر": 3015,
      "درا": 3016,
      "زال": 3017,
      "سان": 3018,
      "ضبطو": 3019,
      "طان": 3020,
      "عيّن": 3021,
      "عنّڭ": 3022,
      "غيّر": 3023,
      "فعي": 3024,
      "فصل": 3025,
      "قمع": 3026,
      "كمي": 3027,
      "متا": 3028,
      "موّلو": 3029,
      "هجم": 3030,
      "هبطو": 3031,
      "هضرو": 3032,
      "anat": 3033,
      "chay": 3034,
      "chra": 3035,
      "ايا": 3036,
      "الص": 3037,
      "mot": 3038,
      "لّيو": 3039,
      "wwri": 3040,
      "موت": 3041,
      "مورا": 3042,
      "موقّ": 3043,
      "dobl": 3044,
      "تيلي": 3045,
      "مّي": 3046,
      "ريڭل": 3047,
      "tsell9o": 3048,
      "لاصا": 3049,
      "lles": 3050,
      "9a3": 3051,
      "منتا": 3052,
      "منقو": 3053,
      "fa3l": 3054,
      "بّا": 3055,
      "ستء": 3056,
      "t7errek": 3057,
      "9odo": 3058,
      "mn9o": 3059,
      "سّق": 3060,
      "سّسو": 3061,
      "تحرّكو": 3062,
      "قودو": 3063,
      "tark": 3064,
      "7ami": 3065,
      "تارك": 3066,
      "fi9o": 3067,
      "kono": 3068,
      "kobb": 3069,
      "محبو": 3070,
      "محدّد": 3071,
      "ربة": 3072,
      "ربعة": 3073,
      "فيقو": 3074,
      "mmer": 3075,
      "طّب": 3076,
      "ساد": 3077,
      "ساعة": 3078,
      "كونو": 3079,
      "n9do": 3080,
      "طوّقو": 3081,
      "chaf": 3082,
      "t3r": 3083,
      "t3elle9": 3084,
      "tabet": 3085,
      "tlb": 3086,
      "tl9o": 3087,
      "سبعة": 3088,
      "jibo": 3089,
      "tdemmno": 3090,
      "تبنّا": 3091,
      "كيا": 3092,
      "kil": 3093,
      "حدّو": 3094,
      "حدّرو": 3095,
      "دمج": 3096,
      "قلّلو": 3097,
      "قلّبو": 3098,
      "ejja": 3099,
      "rb7o": 3100,
      "nseb": 3101,
      "ttaslo": 3102,
      "عاودو": 3103,
      "عالي": 3104,
      "كرهو": 3105,
      "مدوّر": 3106,
      "lbso": 3107,
      "ghadro": 3108,
      "كامل": 3109,
      "dreb": 3110,
      "sbbo": 3111,
      "تابرو": 3112,
      "طيّح": 3113,
      "mennaw": 3114,
      "طرد": 3115,
      "خدمة": 3116,
      "تفرّج": 3117,
      "jrrbo": 3118,
      "fajro": 3119,
      "n99es": 3120,
      "khtalfo": 3121,
      "kr8o": 3122,
      "مزج": 3123,
      "7awlo": 3124,
      "خرجو": 3125,
      "بعدو": 3126,
      "daa3ef": 3127,
      "tbb9o": 3128,
      "حرق": 3129,
      "طاردو": 3130,
      "sawbo": 3131,
      "فحصو": 3132,
      "sifto": 3133,
      "dyy3o": 3134,
      "طبّقو": 3135,
      "ضيّعو": 3136,
      "bbiw": 3137,
      "خاطب": 3138,
      "سيفطو": 3139,
      "khili": 3140,
      "tserrfo": 3141,
      "fhmo": 3142,
      "ءكّدو": 3143,
      "kchfo": 3144,
      "ڭّز": 3145,
      "ستنتجو": 3146,
      "tjwwjo": 3147,
      "خبّي": 3148,
      "3aaniw": 3149,
      "tdkhkhlo": 3150,
      "tzaa": 3151,
      "tsara7o": 3152,
      "t7ekkmo": 3153,
      "daf3": 3154,
      "2emmno": 3155,
      "br8no": 3156,
      "mowwe8": 3157,
      "blasa": 3158,
      "8enne2": 3159,
      "2aadi": 3160,
      "تمنية": 3161,
      "monasi": 3162,
      "zda8er": 3163,
      "ttwwe3": 3164,
      "twesse3": 3165,
      "7d": 3166,
      "fe8mo": 3167,
      "gyyd": 3168,
      "hder": 3169,
      "ima": 3170,
      "jeb": 3171,
      "jerreb": 3172,
      "kn": 3173,
      "mem": 3174,
      "zli": 3175,
      "أدا": 3176,
      "ده": 3177,
      "رق": 3178,
      "زار": 3179,
      "شكر": 3180,
      "ضعي": 3181,
      "طلّق": 3182,
      "طبع": 3183,
      "عوّل": 3184,
      "عدّل": 3185,
      "غش": 3186,
      "غزل": 3187,
      "قدر": 3188,
      "قارّ": 3189,
      "ليو": 3190,
      "نفّ": 3191,
      "نضّم": 3192,
      "ّفو": 3193,
      "ane": 3194,
      "انات": 3195,
      "ta2": 3196,
      "tari": 3197,
      "كاتجمع": 3198,
      "غاتجمع": 3199,
      "ghayb": 3200,
      "موح": 3201,
      "اويا": 3202,
      "3a9": 3203,
      "lal": 3204,
      "ttelleb": 3205,
      "saba": 3206,
      "safr": 3207,
      "edt": 3208,
      "yydi": 3209,
      "bor": 3210,
      "bot": 3211,
      "riti": 3212,
      "معرو": 3213,
      "kkez": 3214,
      "منح": 3215,
      "ستّ": 3216,
      "wal": 3217,
      "9owwed": 3218,
      "rre3": 3219,
      "تعل": 3220,
      "فرك": 3221,
      "تجمع": 3222,
      "عاد": 3223,
      "عاقب": 3224,
      "frek": 3225,
      "طوّري": 3226,
      "قدّري": 3227,
      "مشهو": 3228,
      "kaf": 3229,
      "ffe8": 3230,
      "tredded": 3231,
      "خلّا": 3232,
      "ضور": 3233,
      "حامي": 3234,
      "سبع": 3235,
      "قلّص": 3236,
      "rbe9": 3237,
      "za3": 3238,
      "عالجي": 3239,
      "mde7": 3240,
      "sm3o": 3241,
      "ghiyyer": 3242,
      "طيح": 3243,
      "9bto": 3244,
      "aafd": 3245,
      "dowweb": 3246,
      "3tamd": 3247,
      "3tadr": 3248,
      "9ddmo": 3249,
      "صاڭ": 3250,
      "aaj3": 3251,
      "دّيتو": 3252,
      "gol": 3253,
      "tsab": 3254,
      "تنافس": 3255,
      "تطابق": 3256,
      "daro": 3257,
      "mzej": 3258,
      "تضمّنو": 3259,
      "خلع": 3260,
      "8rrs": 3261,
      "3tarfo": 3262,
      "تلاقا": 3263,
      "rkkz": 3264,
      "تساهل": 3265,
      "تقاجح": 3266,
      "sken": 3267,
      "mo7ta": 3268,
      "وصّل": 3269,
      "صحّح": 3270,
      "khellet": 3271,
      "تقلّق": 3272,
      "ggez": 3273,
      "bllegh": 3274,
      "tchab8": 3275,
      "lse9": 3276,
      "baark": 3277,
      "ديكلار": 3278,
      "لصق": 3279,
      "نساحب": 3280,
      "توفّا": 3281,
      "لاءم": 3282,
      "موّه": 3283,
      "tfa3el": 3284,
      "drdech": 3285,
      "تساءل": 3286,
      "تباطأ": 3287,
      "بزّاف": 3288,
      "2ejjlo": 3289,
      "3g": 3290,
      "7b": 3291,
      "ah": 3292,
      "bdi": 3293,
      "ca": 3294,
      "gi": 3295,
      "kra": 3296,
      "lti": 3297,
      "lfo": 3298,
      "l9aw": 3299,
      "nto": 3300,
      "ray": 3301,
      "rro": 3302,
      "tell": 3303,
      "ul": 3304,
      "ysser": 3305,
      "zw": 3306,
      "zgl": 3307,
      "ze3lel": 3308,
      "أد": 3309,
      "است": 3310,
      "بغا": 3311,
      "تقدّم": 3312,
      "جري": 3313,
      "جدّد": 3314,
      "حيّد": 3315,
      "دبّ": 3316,
      "دعي": 3317,
      "رح": 3318,
      "رحّب": 3319,
      "زني": 3320,
      "سط": 3321,
      "سطو": 3322,
      "شاو": 3323,
      "ضين": 3324,
      "طرو": 3325,
      "طيو": 3326,
      "طمّر": 3327,
      "عمو": 3328,
      "عڭد": 3329,
      "غيا": 3330,
      "فرا": 3331,
      "فقي": 3332,
      "كبر": 3333,
      "ممس": 3334,
      "نقي": 3335,
      "ghlb": 3336,
      "ano": 3337,
      "chab": 3338,
      "ddin": 3339,
      "moch": 3340,
      "mokhtar": 3341,
      "لّل": 3342,
      "tiw": 3343,
      "موخ": 3344,
      "موختار": 3345,
      "ارن": 3346,
      "اوبي": 3347,
      "رّفي": 3348,
      "رّكي": 3349,
      "لوكيو": 3350,
      "saliw": 3351,
      "rass": 3352,
      "yyan": 3353,
      "riba": 3354,
      "rigl": 3355,
      "dakh": 3356,
      "da2i": 3357,
      "sseso": 3358,
      "دوق": 3359,
      "دوي": 3360,
      "tsllf": 3361,
      "تسالم": 3362,
      "تسنّاو": 3363,
      "soni": 3364,
      "سترجع": 3365,
      "ابا": 3366,
      "ابقو": 3367,
      "ماش": 3368,
      "7ob": 3369,
      "مسحي": 3370,
      "قاش": 3371,
      "erres": 3372,
      "sta9": 3373,
      "sta8el": 3374,
      "mmel": 3375,
      "طّي": 3376,
      "سير": 3377,
      "كاتّتا": 3378,
      "كاتّوقّ": 3379,
      "كاتّحمّ": 3380,
      "ms7i": 3381,
      "غاتّتا": 3382,
      "غاتّوقّ": 3383,
      "غاتّحمّ": 3384,
      "m3ro": 3385,
      "t3l": 3386,
      "3awni": 3387,
      "tabro": 3388,
      "tabe8": 3389,
      "خلّيو": 3390,
      "zowwel": 3391,
      "m7edded": 3392,
      "صوڭو": 3393,
      "جيبو": 3394,
      "had": 3395,
      "hal": 3396,
      "khas": 3397,
      "mchiw": 3398,
      "towwri": 3399,
      "التتا": 3400,
      "شرع": 3401,
      "zal": 3402,
      "تنتج": 3403,
      "مدح": 3404,
      "sm7o": 3405,
      "3rf": 3406,
      "sret": 3407,
      "فكّري": 3408,
      "w93o": 3409,
      "gal": 3410,
      "sebbo": 3411,
      "tafdo": 3412,
      "gleb": 3413,
      "تاقم": 3414,
      "ختارع": 3415,
      "ختارق": 3416,
      "شاركو": 3417,
      "منّاو": 3418,
      "god": 3419,
      "ستوعبو": 3420,
      "charko": 3421,
      "n99ez": 3422,
      "wgfo": 3423,
      "aawer": 3424,
      "aawem": 3425,
      "9aat3": 3426,
      "staghello": 3427,
      "zle9": 3428,
      "قاوم": 3429,
      "99e9o": 3430,
      "badlo": 3431,
      "خفّفو": 3432,
      "btasm": 3433,
      "تءمّ": 3434,
      "حتلّ": 3435,
      "خدش": 3436,
      "ضعّف": 3437,
      "فسد": 3438,
      "blokiw": 3439,
      "f7so": 3440,
      "ghaader": 3441,
      "khrjo": 3442,
      "e99e9o": 3443,
      "chawer": 3444,
      "le77o": 3445,
      "wslo": 3446,
      "تسلّقو": 3447,
      "سخّنو": 3448,
      "خصّصو": 3449,
      "دّابزو": 3450,
      "jerrbo": 3451,
      "تأقلم": 3452,
      "stow3bo": 3453,
      "wedd7o": 3454,
      "daaf3o": 3455,
      "3aared": 3456,
      "تساراحو": 3457,
      "jrro": 3458,
      "jerro": 3459,
      "lgaw": 3460,
      "sa7b": 3461,
      "دفّا": 3462,
      "mamso": 3463,
      "gbd": 3464,
      "أساسي": 3465,
      "wggef": 3466,
      "بتاسم": 3467,
      "taalb": 3468,
      "em2en": 3469,
      "to99e3": 3470,
      "t7rrek": 3471,
      "تشطن": 3472,
      "زداهر": 3473,
      "صمّم": 3474,
      "كرّس": 3475,
      "chowwech": 3476,
      "ntakheb": 3477,
      "ستنزف": 3478,
      "ستّة": 3479,
      "ممسو": 3480,
      "2at": 3481,
      "3ed": 3482,
      "7ay": 3483,
      "7edd": 3484,
      "9ellel": 3485,
      "aj": 3486,
      "baa": 3487,
      "ben": 3488,
      "dmi": 3489,
      "dban": 3490,
      "fdo": 3491,
      "k7": 3492,
      "med": 3493,
      "ng": 3494,
      "nfajer": 3495,
      "pi": 3496,
      "rt": 3497,
      "s7i": 3498,
      "t3awn": 3499,
      "ttowwer": 3500,
      "zyyen": 3501,
      "إدار": 3502,
      "بدا": 3503,
      "بجغ": 3504,
      "ترا": 3505,
      "تلاح": 3506,
      "تميّز": 3507,
      "جدب": 3508,
      "حق": 3509,
      "خمي": 3510,
      "زيّر": 3511,
      "سرو": 3512,
      "شري": 3513,
      "صفو": 3514,
      "عش": 3515,
      "علّ": 3516,
      "عزل": 3517,
      "فرّ": 3518,
      "كسي": 3519,
      "متحمّ": 3520,
      "متوا": 3521,
      "نفو": 3522,
      "نفاجر": 3523,
      "اتي": 3524,
      "ghar": 3525,
      "ghli": 3526,
      "اية": 3527,
      "taard": 3528,
      "تاج": 3529,
      "تارا": 3530,
      "تامد": 3531,
      "erri": 3532,
      "mof": 3533,
      "kayb": 3534,
      "kanb": 3535,
      "ghanb": 3536,
      "موش": 3537,
      "do99": 3538,
      "3a9b": 3539,
      "sad": 3540,
      "يّدي": 3541,
      "ma7": 3542,
      "masi": 3543,
      "tserreb": 3544,
      "3owwed": 3545,
      "dial": 3546,
      "تسرّب": 3547,
      "تسابق": 3548,
      "fad": 3549,
      "sted3i": 3550,
      "t7at": 3551,
      "t7edd": 3552,
      "mnta": 3553,
      "جّي": 3554,
      "ماعي": 3555,
      "e77": 3556,
      "stalm": 3557,
      "stadem": 3558,
      "تجسّس": 3559,
      "سيان": 3560,
      "9is": 3561,
      "ms7": 3562,
      "كول": 3563,
      "عادي": 3564,
      "ستامدّ": 3565,
      "kam": 3566,
      "kalmi": 3567,
      "tabs": 3568,
      "trjm": 3569,
      "وافق": 3570,
      "tdm": 3571,
      "tdmmen": 3572,
      "تردّد": 3573,
      "mchro": 3574,
      "nse7": 3575,
      "nsej": 3576,
      "nsekh": 3577,
      "يرين": 3578,
      "خاف": 3579,
      "مدوّ": 3580,
      "جازي": 3581,
      "كاف": 3582,
      "saa3d": 3583,
      "saal7": 3584,
      "سرط": 3585,
      "taf3": 3586,
      "mane": 3587,
      "انيين": 3588,
      "ddam": 3589,
      "غرس": 3590,
      "مصوّر": 3591,
      "chre7": 3592,
      "d33ef": 3593,
      "ghres": 3594,
      "ماركي": 3595,
      "tsower": 3596,
      "قبلو": 3597,
      "تواعد": 3598,
      "wjjeh": 3599,
      "خفّض": 3600,
      "btaker": 3601,
      "سلت": 3602,
      "dmej": 3603,
      "دوّب": 3604,
      "tmech": 3605,
      "wsf": 3606,
      "kbe7": 3607,
      "جمّد": 3608,
      "dyaw": 3609,
      "taardo": 3610,
      "taared": 3611,
      "rched": 3612,
      "diklari": 3613,
      "ja8l": 3614,
      "t2e9lem": 3615,
      "تكركب": 3616,
      "stamdd": 3617,
      "fekker": 3618,
      "tskhskh": 3619,
      "دكّر": 3620,
      "ستلزم": 3621,
      "partaji": 3622,
      "3ddel": 3623,
      "7ch": 3624,
      "7bes": 3625,
      "7jez": 3626,
      "88": 3627,
      "9sem": 3628,
      "bet": 3629,
      "d7k": 3630,
      "fddlo": 3631,
      "jra": 3632,
      "kla": 3633,
      "lghiw": 3634,
      "m3i": 3635,
      "mcha": 3636,
      "nffed": 3637,
      "pp": 3638,
      "zni": 3639,
      "zrreb": 3640,
      "إص": 3641,
      "إست": 3642,
      "ئل": 3643,
      "تقي": 3644,
      "حلف": 3645,
      "حضر": 3646,
      "درّبو": 3647,
      "زيّن": 3648,
      "سلو": 3649,
      "سلي": 3650,
      "شرّف": 3651,
      "ضة": 3652,
      "ضار": 3653,
      "طبي": 3654,
      "طير": 3655,
      "عاب": 3656,
      "عتق": 3657,
      "فار": 3658,
      "فلب": 3659,
      "فسّر": 3660,
      "قانو": 3661,
      "كحب": 3662,
      "لل": 3663,
      "لقاو": 3664,
      "مدو": 3665,
      "مقدّر": 3666,
      "نعي": 3667,
      "نكر": 3668,
      "نوّر": 3669,
      "نبح": 3670,
      "نهار": 3671,
      "هض": 3672,
      "همت": 3673,
      "ورّك": 3674,
      "وسّع": 3675,
      "ڭف": 3676,
      "chedd": 3677,
      "tas": 3678,
      "تاز": 3679,
      "دّين": 3680,
      "arfo": 3681,
      "tow3": 3682,
      "مول": 3683,
      "موحدّ": 3684,
      "na9ch": 3685,
      "لوم": 3686,
      "rowwej": 3687,
      "ttd": 3688,
      "tt3jeb": 3689,
      "sa2": 3690,
      "sah": 3691,
      "lim": 3692,
      "magh": 3693,
      "ma3i": 3694,
      "rah": 3695,
      "yye7": 3696,
      "3om": 3697,
      "3omo": 3698,
      "لاب": 3699,
      "كّلو": 3700,
      "lle3": 3701,
      "تسعود": 3702,
      "wali": 3703,
      "mne7": 3704,
      "سّو": 3705,
      "tarm": 3706,
      "داع": 3707,
      "داخي": 3708,
      "ماء": 3709,
      "for": 3710,
      "قاعد": 3711,
      "فاهم": 3712,
      "كاتّج": 3713,
      "9i9": 3714,
      "غاتّج": 3715,
      "كوبّ": 3716,
      "كومي": 3717,
      "yad": 3718,
      "yada": 3719,
      "zit": 3720,
      "t9elle9": 3721,
      "m7bo": 3722,
      "tdf": 3723,
      "ham": 3724,
      "mchcha": 3725,
      "mch8o": 3726,
      "نقدو": 3727,
      "tta8m": 3728,
      "هادا": 3729,
      "7iyyen": 3730,
      "khde3": 3731,
      "khdech": 3732,
      "chiyyer": 3733,
      "جاه": 3734,
      "ghal": 3735,
      "br8en": 3736,
      "نعس": 3737,
      "9bl": 3738,
      "وقعو": 3739,
      "m9so": 3740,
      "مقسو": 3741,
      "ntaz3": 3742,
      "n7arf": 3743,
      "you": 3744,
      "mjmo": 3745,
      "z3m": 3746,
      "77b": 3747,
      "chref": 3748,
      "ghr9": 3749,
      "tna9": 3750,
      "هية": 3751,
      "فاجء": 3752,
      "fsel": 3753,
      "fsed": 3754,
      "n99et": 3755,
      "وڭفو": 3756,
      "وڭّف": 3757,
      "njarf": 3758,
      "wsse3": 3759,
      "l3en": 3760,
      "tla9a": 3761,
      "وجّهو": 3762,
      "تءقلم": 3763,
      "تّاصل": 3764,
      "صوّرو": 3765,
      "nkharto": 3766,
      "وقّف": 3767,
      "وصلو": 3768,
      "خبّا": 3769,
      "خبّيو": 3770,
      "3aan9": 3771,
      "جمّع": 3772,
      "wde3": 3773,
      "nta9ed": 3774,
      "dyal": 3775,
      "khtalefo": 3776,
      "حتارم": 3777,
      "عتادر": 3778,
      "fa3el": 3779,
      "steb3do": 3780,
      "derrbo": 3781,
      "stentjo": 3782,
      "maars": 3783,
      "tdaa8er": 3784,
      "t7mmel": 3785,
      "sta7e99": 3786,
      "2kkd": 3787,
      "t7kkem": 3788,
      "stafzz": 3789,
      "khaateb": 3790,
      "tsenna": 3791,
      "2e9lem": 3792,
      "tdffe9": 3793,
      "لڭاو": 3794,
      "twetter": 3795,
      "دمّع": 3796,
      "غضبان": 3797,
      "تعهّد": 3798,
      "2e88el": 3799,
      "ttekka": 3800,
      "stenzef": 3801,
      "t3wwd": 3802,
      "monaasi": 3803,
      "2in": 3804,
      "7tt": 3805,
      "7sab": 3806,
      "8rb": 3807,
      "ach": 3808,
      "bba": 3809,
      "d3i": 3810,
      "dwi": 3811,
      "dmme3": 3812,
      "fna": 3813,
      "jti": 3814,
      "l77": 3815,
      "mmo": 3816,
      "mtoww": 3817,
      "medded": 3818,
      "mbdd": 3819,
      "mddo": 3820,
      "ntj": 3821,
      "rti": 3822,
      "sana": 3823,
      "tmen": 3824,
      "twwer": 3825,
      "wdo": 3826,
      "إك": 3827,
      "بنا": 3828,
      "بغي": 3829,
      "تقو": 3830,
      "حفّز": 3831,
      "خان": 3832,
      "خدا": 3833,
      "راي": 3834,
      "رسم": 3835,
      "شه": 3836,
      "شّر": 3837,
      "صال": 3838,
      "صرا": 3839,
      "صالح": 3840,
      "ضوّ": 3841,
      "طفا": 3842,
      "عدي": 3843,
      "عمي": 3844,
      "عبي": 3845,
      "عمّر": 3846,
      "غار": 3847,
      "غنّ": 3848,
      "لفي": 3849,
      "لحي": 3850,
      "لعن": 3851,
      "لوّن": 3852,
      "مڭ": 3853,
      "مطوّ": 3854,
      "مقدّ": 3855,
      "مزي": 3856,
      "ندم": 3857,
      "نڭر": 3858,
      "وزن": 3859,
      "يست": 3860,
      "ڭلي": 3861,
      "ghsl": 3862,
      "ghbr": 3863,
      "ann": 3864,
      "chef": 3865,
      "chedded": 3866,
      "chejje3": 3867,
      "ta3": 3868,
      "tam": 3869,
      "taal": 3870,
      "khbr": 3871,
      "دّدي": 3872,
      "الر": 3873,
      "الش": 3874,
      "moj": 3875,
      "mokhat": 3876,
      "لّفي": 3877,
      "موك": 3878,
      "lo7": 3879,
      "3am": 3880,
      "لوح": 3881,
      "ناقش": 3882,
      "ناشد": 3883,
      "tte": 3884,
      "enn": 3885,
      "enna": 3886,
      "مّني": 3887,
      "rif": 3888,
      "dal": 3889,
      "يون": 3890,
      "معلّق": 3891,
      "راح": 3892,
      "diaw": 3893,
      "llegh": 3894,
      "elles": 3895,
      "بّب": 3896,
      "bi9": 3897,
      "ابة": 3898,
      "t7att": 3899,
      "ميزي": 3900,
      "tard": 3901,
      "7all": 3902,
      "تاردّ": 3903,
      "بية": 3904,
      "مسمو": 3905,
      "مسطّ": 3906,
      "فاء": 3907,
      "فاك": 3908,
      "فرح": 3909,
      "sta9al": 3910,
      "عيط": 3911,
      "فيه": 3912,
      "فيين": 3913,
      "nou": 3914,
      "سوا": 3915,
      "mtw": 3916,
      "عادة": 3917,
      "n9li": 3918,
      "هوما": 3919,
      "tred": 3920,
      "ncht": 3921,
      "wil": 3922,
      "كيل": 3923,
      "صور": 3924,
      "نقلي": 3925,
      "ghir": 3926,
      "sbegh": 3927,
      "saa8em": 3928,
      "نسج": 3929,
      "sre9": 3930,
      "sre7": 3931,
      "m9dd": 3932,
      "طاس": 3933,
      "سرح": 3934,
      "تصوّرو": 3935,
      "mana": 3936,
      "نحارف": 3937,
      "تكلّف": 3938,
      "chre3": 3939,
      "llah": 3940,
      "نجارف": 3941,
      "wgef": 3942,
      "isti": 3943,
      "marki": 3944,
      "fd7": 3945,
      "staghl": 3946,
      "wssel": 3947,
      "tbbet": 3948,
      "wjjd": 3949,
      "wjje8": 3950,
      "حسّن": 3951,
      "ورت": 3952,
      "taabe9": 3953,
      "eddito": 3954,
      "edditi": 3955,
      "laa9i": 3956,
      "laa2em": 3957,
      "قتراح": 3958,
      "مشّا": 3959,
      "mo7ddi": 3960,
      "خارط": 3961,
      "3ta9l": 3962,
      "3ta9ed": 3963,
      "اللخر": 3964,
      "mo299": 3965,
      "تسلّل": 3966,
      "waazen": 3967,
      "شطح": 3968,
      "khle3": 3969,
      "rtabet": 3970,
      "tkhelles": 3971,
      "ezervi": 3972,
      "mttel": 3973,
      "9aaren": 3974,
      "tre22es": 3975,
      "brzet": 3976,
      "هنّأ": 3977,
      "پارتاجي": 3978,
      "قابل": 3979,
      "مپريمي": 3980,
      "2ekked": 3981,
      "غمّس": 3982,
      "ghmmes": 3983,
      "t3e88ed": 3984,
      "tkhyyl": 3985,
      "tchbbet": 3986,
      "tchten": 3987,
      "wahd": 3988,
      "stowred": 3989,
      "لتاحق": 3990,
      "قسّح": 3991,
      "steslem": 3992,
      "تلاتة": 3993,
      "3y": 3994,
      "3ll": 3995,
      "8mi": 3996,
      "8dr": 3997,
      "9er": 3998,
      "a9": 3999,
      "ci": 4000,
      "dmen": 4001,
      "fto": 4002,
      "faa": 4003,
      "fsser": 4004,
      "imk": 4005,
      "jiw": 4006,
      "jdded": 4007,
      "kbi": 4008,
      "ld": 4009,
      "lwi": 4010,
      "mh": 4011,
      "met": 4012,
      "n3i": 4013,
      "of": 4014,
      "r9": 4015,
      "sm7": 4016,
      "t9o": 4017,
      "t9i": 4018,
      "tana": 4019,
      "zna": 4020,
      "ءقلم": 4021,
      "بيّن": 4022,
      "تطو": 4023,
      "جع": 4024,
      "جار": 4025,
      "جرا": 4026,
      "جحو": 4027,
      "خنق": 4028,
      "خرّب": 4029,
      "خبرو": 4030,
      "دن": 4031,
      "دخّل": 4032,
      "رقي": 4033,
      "ركب": 4034,
      "سد": 4035,
      "سرب": 4036,
      "ضهر": 4037,
      "عار": 4038,
      "عتاقل": 4039,
      "غريب": 4040,
      "قنعو": 4041,
      "كلا": 4042,
      "كبّ": 4043,
      "كبي": 4044,
      "لغيو": 4045,
      "مرّ": 4046,
      "نك": 4047,
      "نجي": 4048,
      "هاب": 4049,
      "هجو": 4050,
      "وف": 4051,
      "وسط": 4052,
      "يرا": 4053,
      "ghtti": 4054,
      "ghnni": 4055,
      "ched": 4056,
      "chekk": 4057,
      "ayn": 4058,
      "taba": 4059,
      "khari": 4060,
      "كاتجرّ": 4061,
      "غاتجرّ": 4062,
      "تاري": 4063,
      "ddar": 4064,
      "ينش": 4065,
      "يني": 4066,
      "الداب": 4067,
      "mosa": 4068,
      "mo3l": 4069,
      "وّجي": 4070,
      "wwo": 4071,
      "aafi": 4072,
      "موط": 4073,
      "مون": 4074,
      "doda": 4075,
      "لوجي": 4076,
      "lasa": 4077,
      "ناع": 4078,
      "ttj": 4079,
      "ttta": 4080,
      "ttbo": 4081,
      "sag": 4082,
      "safi": 4083,
      "يّري": 4084,
      "mamno": 4085,
      "rito": 4086,
      "eddro": 4087,
      "بوس": 4088,
      "معال": 4089,
      "mid": 4090,
      "mizi": 4091,
      "كّز": 4092,
      "kkli": 4093,
      "kkzo": 4094,
      "llekh": 4095,
      "9ad": 4096,
      "fal": 4097,
      "عوم": 4098,
      "bit": 4099,
      "jj3i": 4100,
      "t7edda": 4101,
      "ميل": 4102,
      "7ad": 4103,
      "تارح": 4104,
      "قّقو": 4105,
      "فوت": 4106,
      "فران": 4107,
      "sil": 4108,
      "kor": 4109,
      "محفو": 4110,
      "mt2": 4111,
      "mtbo": 4112,
      "طوكي": 4113,
      "n99i": 4114,
      "متأ": 4115,
      "مربو": 4116,
      "m7so": 4117,
      "td3": 4118,
      "جوج": 4119,
      "wira": 4120,
      "ترأس": 4121,
      "tkhtar": 4122,
      "tkhtal": 4123,
      "khal": 4124,
      "ejjli": 4125,
      "ttawa": 4126,
      "mdfo": 4127,
      "mdyo": 4128,
      "مديو": 4129,
      "مدفو": 4130,
      "تقري": 4131,
      "حيد": 4132,
      "تختار": 4133,
      "srt": 4134,
      "m9to": 4135,
      "تصرّفو": 4136,
      "jm3i": 4137,
      "3alji": 4138,
      "df3": 4139,
      "dfn": 4140,
      "طلبي": 4141,
      "صاد": 4142,
      "stoka": 4143,
      "katkhtar": 4144,
      "ghatkhtar": 4145,
      "ڭود": 4146,
      "ءتّري": 4147,
      "تناق": 4148,
      "w3ed": 4149,
      "حاولو": 4150,
      "حتافضو": 4151,
      "naaseb": 4152,
      "جزم": 4153,
      "قبطو": 4154,
      "khsseso": 4155,
      "حرف": 4156,
      "l3b": 4157,
      "حسّو": 4158,
      "wret": 4159,
      "taabr": 4160,
      "dyy3": 4161,
      "khllso": 4162,
      "b7et": 4163,
      "laa2": 4164,
      "قتلو": 4165,
      "9llbo": 4166,
      "فلس": 4167,
      "mw99": 4168,
      "سبّب": 4169,
      "نخارطو": 4170,
      "khtabro": 4171,
      "قرّا": 4172,
      "khellto": 4173,
      "قتارحو": 4174,
      "br8n": 4175,
      "قارن": 4176,
      "fchl": 4177,
      "2ttr": 4178,
      "khffefo": 4179,
      "ttaab9": 4180,
      "زرڤي": 4181,
      "ttaf9": 4182,
      "طابقو": 4183,
      "stab9": 4184,
      "t3llm": 4185,
      "tw993": 4186,
      "tnffs": 4187,
      "tjnnb": 4188,
      "mkken": 4189,
      "dkker": 4190,
      "naachd": 4191,
      "tkerkeb": 4192,
      "موضوع": 4193,
      "3ber": 4194,
      "3nd": 4195,
      "5a": 4196,
      "7seb": 4197,
      "7wwel": 4198,
      "7ssa": 4199,
      "8in": 4200,
      "8ml": 4201,
      "8zz": 4202,
      "9ra": 4203,
      "9ef": 4204,
      "au": 4205,
      "asaa": 4206,
      "d3o": 4207,
      "drab": 4208,
      "ih": 4209,
      "iz": 4210,
      "ila": 4211,
      "je3": 4212,
      "j7o": 4213,
      "lg": 4214,
      "m8rr": 4215,
      "m3alj": 4216,
      "n9i": 4217,
      "qi": 4218,
      "rg": 4219,
      "rra": 4220,
      "swwl": 4221,
      "tja": 4222,
      "wj": 4223,
      "ءهّل": 4224,
      "أت": 4225,
      "أش": 4226,
      "باب": 4227,
      "تزع": 4228,
      "تبّت": 4229,
      "تضاهر": 4230,
      "جزي": 4231,
      "حقي": 4232,
      "خيّ": 4233,
      "خضع": 4234,
      "دش": 4235,
      "راو": 4236,
      "رشد": 4237,
      "سبا": 4238,
      "شخص": 4239,
      "صار": 4240,
      "صنع": 4241,
      "ضمّنو": 4242,
      "طاي": 4243,
      "غو": 4244,
      "غالي": 4245,
      "قتي": 4246,
      "قبي": 4247,
      "كاب": 4248,
      "مدا": 4249,
      "نة": 4250,
      "نست": 4251,
      "ghzel": 4252,
      "chdd": 4253,
      "ch8r": 4254,
      "chkkel": 4255,
      "ch8ar": 4256,
      "kher": 4257,
      "khda": 4258,
      "khddem": 4259,
      "khmsa": 4260,
      "تاكر": 4261,
      "تاسم": 4262,
      "inch": 4263,
      "iniw": 4264,
      "دّلات": 4265,
      "التي": 4266,
      "modi": 4267,
      "mofa": 4268,
      "mogha": 4269,
      "وّضو": 4270,
      "wwlat": 4271,
      "كايك": 4272,
      "كايست": 4273,
      "kani": 4274,
      "كانك": 4275,
      "كانو": 4276,
      "كاني": 4277,
      "كانست": 4278,
      "غانك": 4279,
      "غانست": 4280,
      "غايك": 4281,
      "غايست": 4282,
      "توق": 4283,
      "موءكّ": 4284,
      "موعالي": 4285,
      "ارك": 4286,
      "dodat": 4287,
      "dodin": 4288,
      "3aj": 4289,
      "رّري": 4290,
      "sa8": 4291,
      "sa7a": 4292,
      "ma9": 4293,
      "ras": 4294,
      "ريح": 4295,
      "بوش": 4296,
      "دودا": 4297,
      "معلو": 4298,
      "mi8": 4299,
      "mis": 4300,
      "badi": 4301,
      "تسال": 4302,
      "تسنّ": 4303,
      "منط": 4304,
      "ديين": 4305,
      "ديري": 4306,
      "bil": 4307,
      "sol": 4308,
      "wala": 4309,
      "stta": 4310,
      "st3red": 4311,
      "tarfo": 4312,
      "نوا": 4313,
      "نوب": 4314,
      "تارضو": 4315,
      "تعلي": 4316,
      "تّب": 4317,
      "باع": 4318,
      "محكو": 4319,
      "tbr": 4320,
      "ساحب": 4321,
      "نيا": 4322,
      "حوب": 4323,
      "jou": 4324,
      "قدّا": 4325,
      "مرح": 4326,
      "tlata": 4327,
      "نشري": 4328,
      "nchri": 4329,
      "m7fo": 4330,
      "m7ko": 4331,
      "حاد": 4332,
      "ترتا": 4333,
      "حدّدي": 4334,
      "جرّا": 4335,
      "زوين": 4336,
      "khad": 4337,
      "خاص": 4338,
      "ضّح": 4339,
      "esser": 4340,
      "slt": 4341,
      "تنقّ": 4342,
      "عرضي": 4343,
      "مدرّب": 4344,
      "تقهو": 4345,
      "aria": 4346,
      "تخصّ": 4347,
      "3rdi": 4348,
      "dowwi": 4349,
      "مقيو": 4350,
      "3tas": 4351,
      "مجهو": 4352,
      "9ddm": 4353,
      "tkr": 4354,
      "تكوّن": 4355,
      "n3s": 4356,
      "شارجي": 4357,
      "مصرو": 4358,
      "عندي": 4359,
      "ستور": 4360,
      "mbdi": 4361,
      "charji": 4362,
      "tsow": 4363,
      "كاتنقّ": 4364,
      "غاتنقّ": 4365,
      "حتاج": 4366,
      "nj7": 4367,
      "daawi": 4368,
      "3jb": 4369,
      "badl": 4370,
      "قوّض": 4371,
      "tze3lel": 4372,
      "mo3ali": 4373,
      "7kem": 4374,
      "تزعلل": 4375,
      "قصد": 4376,
      "saad9": 4377,
      "partaj": 4378,
      "ماوا": 4379,
      "ديكلاري": 4380,
      "هنّء": 4381,
      "lta79": 4382,
      "kalma": 4383,
      "8aa2i": 4384,
      "waaj8": 4385,
      "ستهلك": 4386,
      "st9bel": 4387,
      "ste8lek": 4388,
      "صطادم": 4389,
      "dkhel": 4390,
      "stfser": 4391,
      "39": 4392,
      "3b": 4393,
      "7ll": 4394,
      "aan": 4395,
      "be3": 4396,
      "be7": 4397,
      "b7al": 4398,
      "dan": 4399,
      "f3": 4400,
      "fri": 4401,
      "gdd": 4402,
      "imi": 4403,
      "jay": 4404,
      "jna": 4405,
      "lma": 4406,
      "mra": 4407,
      "mso": 4408,
      "mara": 4409,
      "mwss": 4410,
      "mkoww": 4411,
      "nww": 4412,
      "ran": 4413,
      "sd": 4414,
      "sina": 4415,
      "wel": 4416,
      "wllf": 4417,
      "zg": 4418,
      "ءدّ": 4419,
      "إو": 4420,
      "إي": 4421,
      "اط": 4422,
      "بعي": 4423,
      "بسي": 4424,
      "تين": 4425,
      "تكمّل": 4426,
      "تقدّر": 4427,
      "تبادلو": 4428,
      "حري": 4429,
      "حرّر": 4430,
      "خمّن": 4431,
      "رسمي": 4432,
      "سار": 4433,
      "شرب": 4434,
      "شتامل": 4435,
      "شتابه": 4436,
      "صرّف": 4437,
      "صاوبو": 4438,
      "صيّدو": 4439,
      "صدّر": 4440,
      "عاي": 4441,
      "عدّد": 4442,
      "عصر": 4443,
      "فهمت": 4444,
      "قد": 4445,
      "قنا": 4446,
      "قدي": 4447,
      "كنو": 4448,
      "كني": 4449,
      "لعا": 4450,
      "مهم": 4451,
      "مالي": 4452,
      "مخدّ": 4453,
      "نفع": 4454,
      "نزل": 4455,
      "ندامج": 4456,
      "وح": 4457,
      "وزي": 4458,
      "وحيد": 4459,
      "پي": 4460,
      "ڭال": 4461,
      "ڭري": 4462,
      "اتجاه": 4463,
      "tamel": 4464,
      "khan": 4465,
      "khaa": 4466,
      "khir": 4467,
      "كاتكمّل": 4468,
      "كاتقدّر": 4469,
      "كاتعالج": 4470,
      "غاتكمّل": 4471,
      "غاتقدّر": 4472,
      "غاتعالج": 4473,
      "تادر": 4474,
      "ddri": 4475,
      "الرا": 4476,
      "mor": 4477,
      "moto": 4478,
      "mola": 4479,
      "moda": 4480,
      "mo8i": 4481,
      "وّلا": 4482,
      "wwen": 4483,
      "aala": 4484,
      "aabel": 4485,
      "tira": 4486,
      "موج": 4487,
      "موعا": 4488,
      "موجو": 4489,
      "موحال": 4490,
      "na3": 4491,
      "nad": 4492,
      "اولو": 4493,
      "اورو": 4494,
      "اويات": 4495,
      "do3": 4496,
      "3ala": 4497,
      "رّو": 4498,
      "لوي": 4499,
      "rob": 4500,
      "ناض": 4501,
      "ttbb": 4502,
      "يّي": 4503,
      "rassi": 4504,
      "dala": 4505,
      "دوز": 4506,
      "دودين": 4507,
      "دودات": 4508,
      "معي": 4509,
      "tsr": 4510,
      "miza": 4511,
      "ليه": 4512,
      "ll3o": 4513,
      "ba9": 4514,
      "baghi": 4515,
      "تسمعو": 4516,
      "منشو": 4517,
      "fa9": 4518,
      "wa3": 4519,
      "stkhdm": 4520,
      "strje3": 4521,
      "stkhrej": 4522,
      "effa": 4523,
      "ميين": 4524,
      "mnto": 4525,
      "mncho": 4526,
      "mnnaw": 4527,
      "تحدّا": 4528,
      "قوق": 4529,
      "tars": 4530,
      "تعال": 4531,
      "تعلّ": 4532,
      "تعالج": 4533,
      "fot": 4534,
      "فاد": 4535,
      "تّاو": 4536,
      "siya": 4537,
      "kol": 4538,
      "koll": 4539,
      "باح": 4540,
      "فية": 4541,
      "طّو": 4542,
      "طّاش": 4543,
      "سيدي": 4544,
      "كولّا": 4545,
      "fran": 4546,
      "ezz": 4547,
      "قيس": 4548,
      "jom": 4549,
      "chaar": 4550,
      "m3lo": 4551,
      "m3ll": 4552,
      "مشا": 4553,
      "ستاقال": 4554,
      "taber": 4555,
      "trini": 4556,
      "zor": 4557,
      "واض": 4558,
      "wiyin": 4559,
      "kim": 4560,
      "ختالفي": 4561,
      "زّز": 4562,
      "زور": 4563,
      "mcho": 4564,
      "araka": 4565,
      "خاسّ": 4566,
      "essen": 4567,
      "slli": 4568,
      "mdwwer": 4569,
      "chita": 4570,
      "smmi": 4571,
      "جمعة": 4572,
      "mrbo": 4573,
      "تخدّ": 4574,
      "شافي": 4575,
      "m9yo": 4576,
      "3tach": 4577,
      "tafl": 4578,
      "بلغ": 4579,
      "stoki": 4580,
      "تدخّلو": 4581,
      "مبيّن": 4582,
      "مبدّل": 4583,
      "تكبّد": 4584,
      "mkhll": 4585,
      "مصر": 4586,
      "3dem": 4587,
      "mbyy": 4588,
      "حلّل": 4589,
      "تناف": 4590,
      "تنازل": 4591,
      "w3chrin": 4592,
      "entej": 4593,
      "تفاهم": 4594,
      "تفاعلو": 4595,
      "تءقلمو": 4596,
      "ورة": 4597,
      "قشّ": 4598,
      "تلاقاو": 4599,
      "9chcher": 4600,
      "سكنو": 4601,
      "skno": 4602,
      "تّاصلو": 4603,
      "eb3ed": 4604,
      "بارك": 4605,
      "قوّي": 4606,
      "قوّيو": 4607,
      "nkharet": 4608,
      "سمحو": 4609,
      "khtaber": 4610,
      "nta9m": 4611,
      "حسن": 4612,
      "خسّو": 4613,
      "حتارس": 4614,
      "عتابر": 4615,
      "عتامد": 4616,
      "تمشّاو": 4617,
      "rtabto": 4618,
      "لاصة": 4619,
      "تخلّا": 4620,
      "bllgho": 4621,
      "rchdo": 4622,
      "تصور": 4623,
      "berrero": 4624,
      "لايح": 4625,
      "waj8": 4626,
      "مجموعين": 4627,
      "imprimi": 4628,
      "طريق": 4629,
      "لاقم": 4630,
      "stelzem": 4631,
      "stetmer": 4632,
      "ste2nef": 4633,
      "مرتابط": 4634,
      "وطّد": 4635,
      "تفاوض": 4636,
      "mo299at": 4637,
      "تناقشو": 4638,
      "3dd": 4639,
      "3zzez": 4640,
      "8ej": 4641,
      "8dem": 4642,
      "8jem": 4643,
      "99o": 4644,
      "9tel": 4645,
      "9tar7": 4646,
      "as": 4647,
      "asa": 4648,
      "bz": 4649,
      "bch": 4650,
      "bez": 4651,
      "ec": 4652,
      "fla": 4653,
      "han": 4654,
      "jmme3": 4655,
      "kmi": 4656,
      "kno": 4657,
      "ndi": 4658,
      "n9o": 4659,
      "nja": 4660,
      "nff": 4661,
      "om": 4662,
      "oni": 4663,
      "rej": 4664,
      "rfd": 4665,
      "rjje3": 4666,
      "sg": 4667,
      "sdo": 4668,
      "sfo": 4669,
      "s3i": 4670,
      "syyed": 4671,
      "sbbeb": 4672,
      "wkkel": 4673,
      "wrrk": 4674,
      "yd": 4675,
      "zmi": 4676,
      "ءسّس": 4677,
      "أقلّ": 4678,
      "أسّس": 4679,
      "أنف": 4680,
      "إج": 4681,
      "ئع": 4682,
      "بسو": 4683,
      "بضّ": 4684,
      "بنت": 4685,
      "بصح": 4686,
      "تري": 4687,
      "تنو": 4688,
      "تفر": 4689,
      "تفرڭ": 4690,
      "تطوّرو": 4691,
      "ثير": 4692,
      "حيو": 4693,
      "حنو": 4694,
      "حما": 4695,
      "خط": 4696,
      "خات": 4697,
      "خال": 4698,
      "دمي": 4699,
      "رض": 4700,
      "ران": 4701,
      "ركل": 4702,
      "زب": 4703,
      "زمي": 4704,
      "سال": 4705,
      "سوّ": 4706,
      "ساب": 4707,
      "سنس": 4708,
      "شاب": 4709,
      "شجّل": 4710,
      "شحال": 4711,
      "صد": 4712,
      "صعي": 4713,
      "عتاقد": 4714,
      "عتارض": 4715,
      "غنّا": 4716,
      "كاو": 4717,
      "متو": 4718,
      "مطيّ": 4719,
      "نض": 4720,
      "نعا": 4721,
      "هين": 4722,
      "هري": 4723,
      "يدين": 4724,
      "اتهم": 4725,
      "ghin": 4726,
      "ghna": 4727,
      "ghla": 4728,
      "انق": 4729,
      "ch8": 4730,
      "chin": 4731,
      "chdo": 4732,
      "كاتشدّ": 4733,
      "غاتشدّ": 4734,
      "in9": 4735,
      "الدين": 4736,
      "arj": 4737,
      "arat": 4738,
      "moba": 4739,
      "most": 4740,
      "كايو": 4741,
      "ti7": 4742,
      "tili": 4743,
      "غانو": 4744,
      "غايو": 4745,
      "موق": 4746,
      "doz": 4747,
      "3ab": 4748,
      "3ami": 4749,
      "3amel": 4750,
      "ro9": 4751,
      "روب": 4752,
      "نازل": 4753,
      "ttro": 4754,
      "lik": 4755,
      "rak": 4756,
      "yyb": 4757,
      "مّو": 4758,
      "معڭا": 4759,
      "tsm3o": 4760,
      "dim": 4761,
      "diri": 4762,
      "kkar": 4763,
      "منتو": 4764,
      "منحا": 4765,
      "عومو": 4766,
      "ديسير": 4767,
      "sowwro": 4768,
      "ستأنف": 4769,
      "wag": 4770,
      "wa7i": 4771,
      "t7errko": 4772,
      "rrko": 4773,
      "7am": 4774,
      "تاردّو": 4775,
      "فوتو": 4776,
      "بيق": 4777,
      "foto": 4778,
      "jam": 4779,
      "3i9": 4780,
      "فاق": 4781,
      "فرما": 4782,
      "fih": 4783,
      "باهر": 4784,
      "محرو": 4785,
      "محمّ": 4786,
      "nod": 4787,
      "سام": 4788,
      "ساهل": 4789,
      "سوڭ": 4790,
      "9i9a": 4791,
      "mslo": 4792,
      "jowwej": 4793,
      "مشطو": 4794,
      "t3ell9o": 4795,
      "t9ddmo": 4796,
      "m7i": 4797,
      "حاضر": 4798,
      "واد": 4799,
      "mchto": 4800,
      "rb3a": 4801,
      "هائي": 4802,
      "عاوني": 4803,
      "صّل": 4804,
      "slto": 4805,
      "جاهل": 4806,
      "drbo": 4807,
      "8ad": 4808,
      "sb3a": 4809,
      "سربي": 4810,
      "تاقلو": 4811,
      "مكلّ": 4812,
      "ntaz": 4813,
      "ntami": 4814,
      "مبغي": 4815,
      "mkhdd": 4816,
      "ssam": 4817,
      "tnaf": 4818,
      "tnazl": 4819,
      "خول": 4820,
      "eyyi": 4821,
      "داوي": 4822,
      "khsser": 4823,
      "daakhili": 4824,
      "badel": 4825,
      "تهجّ": 4826,
      "bloka": 4827,
      "9lleb": 4828,
      "نصح": 4829,
      "mo3tab": 4830,
      "kebb": 4831,
      "9aabel": 4832,
      "mo2kka": 4833,
      "tmnna": 4834,
      "مغلو": 4835,
      "تأثير": 4836,
      "momta": 4837,
      "nfe3": 4838,
      "نتاما": 4839,
      "9tira7": 4840,
      "ستالزم": 4841,
      "7tejj": 4842,
      "diklar": 4843,
      "jaazi": 4844,
      "ktaseb": 4845,
      "حشمان": 4846,
      "غضب": 4847,
      "t98wa": 4848,
      "w99ef": 4849,
      "وزّع": 4850,
      "twaj8": 4851,
      "حكّم": 4852,
      "واسع": 4853,
      "wzze3": 4854,
      "3oud": 4855,
      "zwin": 4856,
      "متحمّس": 4857,
      "تقريبا": 4858,
      "2edd": 4859,
      "2eddi": 4860,
      "3k": 4861,
      "3er": 4862,
      "3eb": 4863,
      "3bb": 4864,
      "3elle9": 4865,
      "3ard": 4866,
      "3ndo": 4867,
      "7ta": 4868,
      "7bo": 4869,
      "7no": 4870,
      "7tti": 4871,
      "7arrar": 4872,
      "8j": 4873,
      "8la": 4874,
      "8ri": 4875,
      "9tl": 4876,
      "am": 4877,
      "aat": 4878,
      "ami": 4879,
      "bli": 4880,
      "bsi": 4881,
      "dl": 4882,
      "e7o": 4883,
      "gra": 4884,
      "her": 4885,
      "hia": 4886,
      "iel": 4887,
      "ira": 4888,
      "jbo": 4889,
      "jzi": 4890,
      "jzem": 4891,
      "jdeb": 4892,
      "kna": 4893,
      "kma": 4894,
      "l7al": 4895,
      "mt7": 4896,
      "m3aw": 4897,
      "mek": 4898,
      "ots3in": 4899,
      "o3chrin": 4900,
      "rtaf": 4901,
      "r77": 4902,
      "sy": 4903,
      "tg": 4904,
      "ty": 4905,
      "ten": 4906,
      "tba": 4907,
      "tbi": 4908,
      "waaf9": 4909,
      "yed": 4910,
      "ءدّي": 4911,
      "أن": 4912,
      "أو": 4913,
      "إمكن": 4914,
      "اد": 4915,
      "بشو": 4916,
      "تات": 4917,
      "تمو": 4918,
      "تبر": 4919,
      "تفضّل": 4920,
      "تكّا": 4921,
      "جاي": 4922,
      "جبي": 4923,
      "جرة": 4924,
      "حاب": 4925,
      "حمي": 4926,
      "حبي": 4927,
      "حوّلو": 4928,
      "خبو": 4929,
      "ريّ": 4930,
      "ردّد": 4931,
      "رزرڤ": 4932,
      "زد": 4933,
      "سن": 4934,
      "سلا": 4935,
      "سدّو": 4936,
      "شين": 4937,
      "شرّ": 4938,
      "شفي": 4939,
      "عڭ": 4940,
      "عانا": 4941,
      "غدّ": 4942,
      "غلو": 4943,
      "غنّي": 4944,
      "فيو": 4945,
      "فنّ": 4946,
      "فهمي": 4947,
      "كمو": 4948,
      "كدّاب": 4949,
      "لغ": 4950,
      "لار": 4951,
      "ماب": 4952,
      "مقا": 4953,
      "مجرّ": 4954,
      "مطوّر": 4955,
      "مكمّل": 4956,
      "مهمو": 4957,
      "ممنو": 4958,
      "نقو": 4959,
      "ولّ": 4960,
      "يز": 4961,
      "يدا": 4962,
      "ڭرو": 4963,
      "ڭيّدو": 4964,
      "ghyin": 4965,
      "ghwwt": 4966,
      "ghdban": 4967,
      "chm": 4968,
      "chem": 4969,
      "chcher": 4970,
      "ايل": 4971,
      "taman": 4972,
      "takbo": 4973,
      "talab": 4974,
      "khem": 4975,
      "كاتختار": 4976,
      "كاتطوّر": 4977,
      "كاتعاون": 4978,
      "كاتجرّب": 4979,
      "كاتعلن": 4980,
      "غاتختار": 4981,
      "غاتطوّر": 4982,
      "غاتعاون": 4983,
      "غاتجرّب": 4984,
      "غاتعلن": 4985,
      "تازع": 4986,
      "تاملو": 4987,
      "تاخب": 4988,
      "eriel": 4989,
      "دّرو": 4990,
      "دّدا": 4991,
      "الما": 4992,
      "moz": 4993,
      "mofi": 4994,
      "mokha": 4995,
      "mokhta": 4996,
      "mobdd": 4997,
      "وّني": 4998,
      "وّشو": 4999,
      "til": 5000,
      "توجّ": 5001,
      "مولا": 5002,
      "مودي": 5003,
      "موفي": 5004,
      "موختا": 5005,
      "موغا": 5006,
      "موحتا": 5007,
      "مونشا": 5008,
      "doro": 5009,
      "رّعو": 5010,
      "laf": 5011,
      "la9aw": 5012,
      "tt3o": 5013,
      "ttbi": 5014,
      "sabb": 5015,
      "تيرا": 5016,
      "liat": 5017,
      "liya": 5018,
      "liyin": 5019,
      "ma2": 5020,
      "mawa": 5021,
      "ra3": 5022,
      "yybo": 5023,
      "yyri": 5024,
      "bol": 5025,
      "ri7": 5026,
      "rir": 5027,
      "eddri": 5028,
      "بوط": 5029,
      "dad": 5030,
      "ss9o": 5031,
      "معة": 5032,
      "معزو": 5033,
      "معصّ": 5034,
      "راس": 5035,
      "راضي": 5036,
      "tsaa": 5037,
      "لاد": 5038,
      "كّاو": 5039,
      "kkzi": 5040,
      "ليين": 5041,
      "lls": 5042,
      "llfi": 5043,
      "تسدّ": 5044,
      "تسلمو": 5045,
      "9a3d": 5046,
      "منسو": 5047,
      "sod": 5048,
      "wa3d": 5049,
      "jjli": 5050,
      "t7aw": 5051,
      "t7emmli": 5052,
      "ميم": 5053,
      "ميتا": 5054,
      "rr3o": 5055,
      "mnso": 5056,
      "جّلات": 5057,
      "سّي": 5058,
      "سّقو": 5059,
      "تحسب": 5060,
      "تحوّل": 5061,
      "tarko": 5062,
      "دافعي": 5063,
      "تارفي": 5064,
      "تاركو": 5065,
      "تعام": 5066,
      "تعلّقو": 5067,
      "قّن": 5068,
      "قّقي": 5069,
      "ماعندو": 5070,
      "بيل": 5071,
      "3ich": 5072,
      "مسرو": 5073,
      "قاد": 5074,
      "errso": 5075,
      "errki": 5076,
      "فّهو": 5077,
      "فّزو": 5078,
      "sidi": 5079,
      "kou": 5080,
      "kobbo": 5081,
      "تجمّ": 5082,
      "تجرّب": 5083,
      "تجوج": 5084,
      "محقّ": 5085,
      "محسو": 5086,
      "محطو": 5087,
      "محجو": 5088,
      "tb3i": 5089,
      "طّل": 5090,
      "طّرو": 5091,
      "طّبو": 5092,
      "سود": 5093,
      "كاتّع": 5094,
      "9it": 5095,
      "msay": 5096,
      "msbo": 5097,
      "msll": 5098,
      "msyo": 5099,
      "ms2o": 5100,
      "غاتّع": 5101,
      "كوبّو": 5102,
      "mtyy": 5103,
      "فضك": 5104,
      "فضحو": 5105,
      "عاش": 5106,
      "عاط": 5107,
      "عامّ": 5108,
      "frko": 5109,
      "frzo": 5110,
      "frcho": 5111,
      "m39o": 5112,
      "m3zo": 5113,
      "twjj": 5114,
      "نّڭو": 5115,
      "ستاقل": 5116,
      "متبو": 5117,
      "ffzo": 5118,
      "ff8o": 5119,
      "مرفو": 5120,
      "مروّن": 5121,
      "tab9": 5122,
      "tabso": 5123,
      "tab8o": 5124,
      "tlbi": 5125,
      "zidi": 5126,
      "ziyyro": 5127,
      "نشإ": 5128,
      "ضورو": 5129,
      "ضوبلو": 5130,
      "t9li": 5131,
      "nch2i": 5132,
      "zowwlo": 5133,
      "m7to": 5134,
      "m7jo": 5135,
      "واج": 5136,
      "jil": 5137,
      "tdem": 5138,
      "wir": 5139,
      "زيدي": 5140,
      "علني": 5141,
      "khaw": 5142,
      "khass": 5143,
      "mchyo": 5144,
      "mchchaw": 5145,
      "99en": 5146,
      "rb9o": 5147,
      "tchr": 5148,
      "بطي": 5149,
      "zad": 5150,
      "خافو": 5151,
      "خافضو": 5152,
      "ضّو": 5153,
      "حّبو": 5154,
      "حّدو": 5155,
      "تشبّت": 5156,
      "khdma": 5157,
      "khdmi": 5158,
      "تناين": 5159,
      "هملو": 5160,
      "md7o": 5161,
      "عرفو": 5162,
      "chia": 5163,
      "مدحو": 5164,
      "صلحي": 5165,
      "كاس": 5166,
      "3lni": 5167,
      "tnaa": 5168,
      "كاتحسب": 5169,
      "كاتحوّل": 5170,
      "mrkk": 5171,
      "mrfo": 5172,
      "غادري": 5173,
      "غامرو": 5174,
      "غاتحسب": 5175,
      "غاتحوّل": 5176,
      "ghiyyro": 5177,
      "فعّ": 5178,
      "تخفّ": 5179,
      "تخدم": 5180,
      "9bel": 5181,
      "9blo": 5182,
      "etter": 5183,
      "khtari": 5184,
      "aafdo": 5185,
      "m9ll": 5186,
      "e99e3": 5187,
      "dowwbo": 5188,
      "dowwri": 5189,
      "materiel": 5190,
      "2amno": 5191,
      "gaddo": 5192,
      "تابع": 5193,
      "تابهو": 5194,
      "nngo": 5195,
      "ضاهرو": 5196,
      "مجيو": 5197,
      "مجموع": 5198,
      "ڭلبو": 5199,
      "glbo": 5200,
      "تاقمو": 5201,
      "زاد": 5202,
      "زامنو": 5203,
      "tkemmel": 5204,
      "tkellef": 5205,
      "تلحّ": 5206,
      "طيّبي": 5207,
      "طيّحو": 5208,
      "bddli": 5209,
      "بحر": 5210,
      "ضربو": 5211,
      "jawbi": 5212,
      "aaj3o": 5213,
      "mjyo": 5214,
      "منّاي": 5215,
      "llia": 5216,
      "ytro": 5217,
      "غرسو": 5218,
      "z3mo": 5219,
      "طرة": 5220,
      "طردو": 5221,
      "ميّزي": 5222,
      "ghrso": 5223,
      "ڭادّو": 5224,
      "ddedi": 5225,
      "fkkri": 5226,
      "مارسو": 5227,
      "ڭابلي": 5228,
      "tnafs": 5229,
      "aalji": 5230,
      "t2emmel": 5231,
      "راجعي": 5232,
      "tsa8el": 5233,
      "tsalm": 5234,
      "كاتسدّ": 5235,
      "غاتسدّ": 5236,
      "ركّزي": 5237,
      "khor": 5238,
      "تطبّ": 5239,
      "gabli": 5240,
      "kmmli": 5241,
      "خور": 5242,
      "frg3i": 5243,
      "aawmo": 5244,
      "aawro": 5245,
      "marka": 5246,
      "tata": 5247,
      "tfa8em": 5248,
      "tfawd": 5249,
      "rj3": 5250,
      "مزيو": 5251,
      "مزجو": 5252,
      "هزّي": 5253,
      "غوّتي": 5254,
      "miyyzi": 5255,
      "mzjo": 5256,
      "mzyo": 5257,
      "eyybo": 5258,
      "sem3o": 5259,
      "wssi": 5260,
      "khsso": 5261,
      "zl9o": 5262,
      "هّلي": 5263,
      "خدمي": 5264,
      "3tard": 5265,
      "b7to": 5266,
      "مدّدو": 5267,
      "ghaadro": 5268,
      "tachfo": 5269,
      "خاطرو": 5270,
      "خاطبو": 5271,
      "tello": 5272,
      "فرشخو": 5273,
      "chawro": 5274,
      "le77i": 5275,
      "8ezzi": 5276,
      "قوّا": 5277,
      "sab9": 5278,
      "twa3d": 5279,
      "ڭّزو": 5280,
      "3aan9o": 5281,
      "frchkho": 5282,
      "daf3o": 5283,
      "تمرو": 5284,
      "t9a3d": 5285,
      "damjo": 5286,
      "sa7bo": 5287,
      "ggzo": 5288,
      "fa3lo": 5289,
      "moww8o": 5290,
      "ديالها": 5291,
      "gbdo": 5292,
      "ڭبضو": 5293,
      "na9cho": 5294,
      "برزطو": 5295,
      "عندها": 5296,
      "maarso": 5297,
      "ttaab9o": 5298,
      "8enn2o": 5299,
      "baarko": 5300,
      "9iyymo": 5301,
      "دردشو": 5302,
      "ضاعفو": 5303,
      "t2e9lmo": 5304,
      "ra9bo": 5305,
      "t3llmo": 5306,
      "em2no": 5307,
      "khafdo": 5308,
      "غطّي": 5309,
      "tfkkr": 5310,
      "tfa3lo": 5311,
      "2e9lmo": 5312,
      "مناسبة": 5313,
      "دوقّو": 5314,
      "مجموعة": 5315,
      "moncha": 5316,
      "طمءن": 5317,
      "ارّارو": 5318,
      "دياولها": 5319,
      "دامجو": 5320,
      "طراسّي": 5321,
      "wdde7": 5322,
      "wtted": 5323,
      "أادي": 5324,
      "خربق": 5325,
      "قتابس": 5326,
      "jemmed": 5327,
      "w77ed": 5328,
      "تغلّب": 5329,
      "موبدّي": 5330,
      "tfrrj": 5331,
      "تعلن": 5332,
      "kaf7o": 5333,
      "استث": 5334,
      "كافحو": 5335,
      "tna9cho": 5336,
      "لحية": 5337,
      "tteto": 5338,
      "لايحفضك": 5339,
      "ريّح": 5340,
      "موختارا": 5341,
      "3yy": 5342,
      "3zel": 5343,
      "3bber": 5344,
      "3nng": 5345,
      "7l": 5346,
      "7ett": 5347,
      "7errek": 5348,
      "8at": 5349,
      "9tar": 5350,
      "9iw": 5351,
      "9wi": 5352,
      "9n3": 5353,
      "9ne3": 5354,
      "9wwa": 5355,
      "ad": 5356,
      "b9a": 5357,
      "bari": 5358,
      "brrer": 5359,
      "ce": 5360,
      "drb": 5361,
      "dina": 5362,
      "fti": 5363,
      "fdi": 5364,
      "fiw": 5365,
      "glas": 5366,
      "hay": 5367,
      "hem": 5368,
      "hab": 5369,
      "hdro": 5370,
      "him": 5371,
      "ili": 5372,
      "jma": 5373,
      "jeff": 5374,
      "kto": 5375,
      "ksb": 5376,
      "kseb": 5377,
      "l9": 5378,
      "lan": 5379,
      "lgha": 5380,
      "nddem": 5381,
      "od": 5382,
      "or": 5383,
      "ofo": 5384,
      "qar": 5385,
      "reb": 5386,
      "redd": 5387,
      "r9o": 5388,
      "rezerv": 5389,
      "say": 5390,
      "s7a": 5391,
      "sejjel": 5392,
      "sjjel": 5393,
      "s88el": 5394,
      "tem": 5395,
      "teb": 5396,
      "t3aw": 5397,
      "tej": 5398,
      "tmiyyez": 5399,
      "wzen": 5400,
      "zm": 5401,
      "zemo": 5402,
      "ءهّلو": 5403,
      "ءسّسو": 5404,
      "أمي": 5405,
      "ألم": 5406,
      "أمّن": 5407,
      "أمنو": 5408,
      "بنّا": 5409,
      "بصحّ": 5410,
      "تفكّرو": 5411,
      "حلي": 5412,
      "ديّن": 5413,
      "رئ": 5414,
      "رءّ": 5415,
      "زڭ": 5416,
      "زرا": 5417,
      "سكر": 5418,
      "سلّم": 5419,
      "سالات": 5420,
      "شك": 5421,
      "شرو": 5422,
      "شدي": 5423,
      "شابه": 5424,
      "ضاي": 5425,
      "ضاو": 5426,
      "ضوّي": 5427,
      "ضريف": 5428,
      "طه": 5429,
      "طمّرو": 5430,
      "عز": 5431,
      "عكس": 5432,
      "عجبو": 5433,
      "غبرو": 5434,
      "غزلو": 5435,
      "غيّرو": 5436,
      "غسلو": 5437,
      "فلة": 5438,
      "قان": 5439,
      "كبير": 5440,
      "لتي": 5441,
      "لخر": 5442,
      "لحال": 5443,
      "لحساب": 5444,
      "مخلّ": 5445,
      "مختا": 5446,
      "مارا": 5447,
      "مڭاب": 5448,
      "مهرّ": 5449,
      "نوّ": 5450,
      "نسب": 5451,
      "نصّ": 5452,
      "نهج": 5453,
      "نخافض": 5454,
      "هدّدو": 5455,
      "هند": 5456,
      "يال": 5457,
      "ڭرا": 5458,
      "اتصل": 5459,
      "aniw": 5460,
      "انين": 5461,
      "chiw": 5462,
      "ch7al": 5463,
      "tah": 5464,
      "takh": 5465,
      "كاترفض": 5466,
      "غاتز": 5467,
      "غاترفض": 5468,
      "تامي": 5469,
      "ينة": 5470,
      "mo8": 5471,
      "mok": 5472,
      "mo9a": 5473,
      "moja": 5474,
      "وّه": 5475,
      "wwj": 5476,
      "tiri": 5477,
      "موه": 5478,
      "موستا": 5479,
      "موجاب": 5480,
      "naf": 5481,
      "nazl": 5482,
      "اولي": 5483,
      "doblo": 5484,
      "3aana": 5485,
      "rof": 5486,
      "rowwjo": 5487,
      "ناشط": 5488,
      "ناقص": 5489,
      "ttt": 5490,
      "tted": 5491,
      "ttfa": 5492,
      "tt3jbo": 5493,
      "ttellbo": 5494,
      "salat": 5495,
      "safro": 5496,
      "maji": 5497,
      "مّش": 5498,
      "مّيو": 5499,
      "bo3": 5500,
      "boso": 5501,
      "riban": 5502,
      "riglo": 5503,
      "ريڭ": 5504,
      "ريڭلو": 5505,
      "بوسو": 5506,
      "ssri": 5507,
      "ssef": 5508,
      "ss7o": 5509,
      "يوم": 5510,
      "دور": 5511,
      "دوقو": 5512,
      "دوزو": 5513,
      "معوّ": 5514,
      "معقّ": 5515,
      "معقول": 5516,
      "راه": 5517,
      "tsellelo": 5518,
      "tsllfo": 5519,
      "3owwdo": 5520,
      "لاقاو": 5521,
      "dil": 5522,
      "dit": 5523,
      "ليات": 5524,
      "llat": 5525,
      "تسر": 5526,
      "ellet": 5527,
      "منحو": 5528,
      "fah": 5529,
      "بّري": 5530,
      "ستين": 5531,
      "ابات": 5532,
      "wazn": 5533,
      "effo": 5534,
      "ميد": 5535,
      "ميلو": 5536,
      "ميزيو": 5537,
      "rrfi": 5538,
      "mn7o": 5539,
      "tareddo": 5540,
      "7ala": 5541,
      "نوي": 5542,
      "داق": 5543,
      "داخل": 5544,
      "تعلّمو": 5545,
      "قّات": 5546,
      "ماشي": 5547,
      "فوڭ": 5548,
      "بيض": 5549,
      "بيعو": 5550,
      "fou": 5551,
      "jal": 5552,
      "jama": 5553,
      "3id": 5554,
      "مسأ": 5555,
      "errbo": 5556,
      "erref": 5557,
      "تّرو": 5558,
      "فركو": 5559,
      "فرزو": 5560,
      "فرشو": 5561,
      "stalmo": 5562,
      "stadmo": 5563,
      "fido": 5564,
      "emmemo": 5565,
      "عيش": 5566,
      "عيق": 5567,
      "محو": 5568,
      "فيدو": 5569,
      "nisbi": 5570,
      "mmat": 5571,
      "سية": 5572,
      "سيطرو": 5573,
      "كوني": 5574,
      "mtta": 5575,
      "عام": 5576,
      "عامر": 5577,
      "طوّلو": 5578,
      "m3na": 5579,
      "twg": 5580,
      "ستامدّو": 5581,
      "t3wwdo": 5582,
      "لبال": 5583,
      "ملكي": 5584,
      "tl3o": 5585,
      "trdo": 5586,
      "treddedo": 5587,
      "نشو": 5588,
      "t9ll": 5589,
      "t9ell9o": 5590,
      "nchto": 5591,
      "zon": 5592,
      "zoro": 5593,
      "حامض": 5594,
      "حافضو": 5595,
      "واجهو": 5596,
      "ترفض": 5597,
      "دمجو": 5598,
      "قلّعو": 5599,
      "قلّصو": 5600,
      "زيا": 5601,
      "زيط": 5602,
      "عللو": 5603,
      "زورو": 5604,
      "khafo": 5605,
      "ejjaw": 5606,
      "nsbo": 5607,
      "ns7o": 5608,
      "nsjo": 5609,
      "nskho": 5610,
      "شربو": 5611,
      "شرعو": 5612,
      "شرفو": 5613,
      "شرحو": 5614,
      "tchar": 5615,
      "tta8mo": 5616,
      "ttawaw": 5617,
      "هادي": 5618,
      "7iyyno": 5619,
      "za2i": 5620,
      "عدمو": 5621,
      "عدرو": 5622,
      "khd3o": 5623,
      "khdcho": 5624,
      "تنضي": 5625,
      "mdyy": 5626,
      "mrtt": 5627,
      "ghattfa": 5628,
      "طيحو": 5629,
      "3rfo": 5630,
      "srat": 5631,
      "وقت": 5632,
      "aafiw": 5633,
      "w9e3": 5634,
      "dowwiw": 5635,
      "mattaf": 5636,
      "مقاو": 5637,
      "derro": 5638,
      "nniw": 5639,
      "3tadro": 5640,
      "3tamdo": 5641,
      "مجلّ": 5642,
      "مجوّج": 5643,
      "itti": 5644,
      "dfno": 5645,
      "ماتّا": 5646,
      "زلقو": 5647,
      "tfaa": 5648,
      "زعمو": 5649,
      "بحتو": 5650,
      "mjmo3a": 5651,
      "ddad": 5652,
      "kat9ll": 5653,
      "elleli": 5654,
      "mkhdo": 5655,
      "ghat9ll": 5656,
      "golo": 5657,
      "77e7o": 5658,
      "d33fo": 5659,
      "ڭولو": 5660,
      "llaf": 5661,
      "ماركيو": 5662,
      "صرطو": 5663,
      "كبرو": 5664,
      "كبحو": 5665,
      "fsdo": 5666,
      "fslo": 5667,
      "n99to": 5668,
      "n99so": 5669,
      "n99zo": 5670,
      "خون": 5671,
      "خوي": 5672,
      "aawiw": 5673,
      "markiw": 5674,
      "8emmo": 5675,
      "naasb": 5676,
      "fd7o": 5677,
      "مضلّ": 5678,
      "مضيّ": 5679,
      "تواجهو": 5680,
      "khtar3": 5681,
      "khtar9": 5682,
      "tbbto": 5683,
      "rttb": 5684,
      "l3bo": 5685,
      "l3no": 5686,
      "خلعة": 5687,
      "tlacha": 5688,
      "دفنو": 5689,
      "btasmo": 5690,
      "btakro": 5691,
      "khatr": 5692,
      "ورقة": 5693,
      "arrer": 5694,
      "wrto": 5695,
      "غليو": 5696,
      "قرن": 5697,
      "taab9o": 5698,
      "ضعّفو": 5699,
      "فسرو": 5700,
      "فسدو": 5701,
      "errero": 5702,
      "khlls": 5703,
      "khllt": 5704,
      "ghaamro": 5705,
      "dmjo": 5706,
      "طلّعو": 5707,
      "طلّقو": 5708,
      "9ll3": 5709,
      "9llb": 5710,
      "دوّبو": 5711,
      "tserrbo": 5712,
      "نقّز": 5713,
      "نقّط": 5714,
      "كتاسبو": 5715,
      "كتاشفو": 5716,
      "خارج": 5717,
      "3ta9do": 5718,
      "3ta9lo": 5719,
      "هدمو": 5720,
      "kb7o": 5721,
      "taniw": 5722,
      "الميو": 5723,
      "mo2tti": 5724,
      "ڭّان": 5725,
      "تسلّفو": 5726,
      "طالبو": 5727,
      "bayna": 5728,
      "نتازع": 5729,
      "فشلو": 5730,
      "عطس": 5731,
      "متّلو": 5732,
      "لاصاو": 5733,
      "2ttro": 5734,
      "tkhellso": 5735,
      "سامحو": 5736,
      "ستالمو": 5737,
      "ستالزمو": 5738,
      "7tafd": 5739,
      "ستابقو": 5740,
      "tchab8o": 5741,
      "mmia": 5742,
      "مكّنو": 5743,
      "sam7o": 5744,
      "ttaf9o": 5745,
      "stab9o": 5746,
      "tdaa8ro": 5747,
      "لاءمو": 5748,
      "9aarno": 5749,
      "t7mmlo": 5750,
      "tbat2o": 5751,
      "2kkdo": 5752,
      "lowwno": 5753,
      "t7kkmo": 5754,
      "stafzzo": 5755,
      "tw993o": 5756,
      "ستافزّو": 5757,
      "tre22so": 5758,
      "khaatbo": 5759,
      "brzto": 5760,
      "جردة": 5761,
      "موّهو": 5762,
      "مصّو": 5763,
      "stamddo": 5764,
      "tnffso": 5765,
      "mechcha": 5766,
      "باينة": 5767,
      "پارتاجيو": 5768,
      "to993o": 5769,
      "t7rrko": 5770,
      "ضرّو": 5771,
      "tdff9o": 5772,
      "مپريميو": 5773,
      "2esseso": 5774,
      "2ekkdo": 5775,
      "غمّسو": 5776,
      "ghmmso": 5777,
      "tskhskho": 5778,
      "twettro": 5779,
      "t3e88do": 5780,
      "tkhyylo": 5781,
      "tchbbto": 5782,
      "tjnnbo": 5783,
      "tchtno": 5784,
      "جلد": 5785,
      "do99o": 5786,
      "kalmiw": 5787,
      "قهوة": 5788,
      "طمءنو": 5789,
      "قريبا": 5790,
      "ستاحقّو": 5791,
      "trjmo": 5792,
      "8aaro": 5793,
      "houm": 5794,
      "2e88lo": 5795,
      "tsnnaw": 5796,
      "تدفّق": 5797,
      "tbnnaw": 5798,
      "twffaw": 5799,
      "صحيح": 5800,
      "قيّم": 5801,
      "bjegh": 5802,
      "bellegh": 5803,
      "diino": 5804,
      "tsa2el": 5805,
      "ضحكو": 5806,
      "طبعو": 5807,
      "jessed": 5808,
      "خشب": 5809,
      "tkebbed": 5810,
      "ستءنف": 5811,
      "tzaamn": 5812,
      "3a9bo": 5813,
      "ديكلاريو": 5814,
      "t7atto": 5815,
      "tdmmno": 5816,
      "صادقو": 5817,
      "تخصّص": 5818,
      "tsowro": 5819,
      "partajiw": 5820,
      "موجود": 5821,
      "سنسلة": 5822,
      "diklariw": 5823,
      "mokhtara": 5824,
      "بصحّا": 5825,
      "3n": 5826,
      "3t9": 5827,
      "3dded": 5828,
      "7ri": 5829,
      "7ba": 5830,
      "7es": 5831,
      "7fr": 5832,
      "7bb": 5833,
      "7dr": 5834,
      "7eddedo": 5835,
      "7wwl": 5836,
      "7aya": 5837,
      "7taj": 5838,
      "7arf": 5839,
      "8do": 5840,
      "8emm": 5841,
      "8jo": 5842,
      "8ejja": 5843,
      "a7": 5844,
      "a9a": 5845,
      "b7o": 5846,
      "fdd": 5847,
      "fe3": 5848,
      "ffi": 5849,
      "fara": 5850,
      "fina": 5851,
      "flb": 5852,
      "ge": 5853,
      "gdo": 5854,
      "gyydo": 5855,
      "hla": 5856,
      "hda": 5857,
      "ito": 5858,
      "jel": 5859,
      "jegh": 5860,
      "jarr": 5861,
      "kara": 5862,
      "kbr": 5863,
      "lbo": 5864,
      "le3": 5865,
      "l3o": 5866,
      "l8mo": 5867,
      "mda": 5868,
      "me7": 5869,
      "mzi": 5870,
      "mina": 5871,
      "msso": 5872,
      "nz": 5873,
      "nda": 5874,
      "nhar": 5875,
      "ndamj": 5876,
      "re": 5877,
      "rda": 5878,
      "rgo": 5879,
      "rsmi": 5880,
      "sww": 5881,
      "sra": 5882,
      "sen": 5883,
      "sell": 5884,
      "sghi": 5885,
      "skhkh": 5886,
      "te": 5887,
      "tet": 5888,
      "vo": 5889,
      "wla": 5890,
      "wst": 5891,
      "yssro": 5892,
      "zrr": 5893,
      "ءقلمو": 5894,
      "إلا": 5895,
      "إكمّلو": 5896,
      "بحو": 5897,
      "بهر": 5898,
      "بداو": 5899,
      "تڭ": 5900,
      "تان": 5901,
      "تجّ": 5902,
      "تمسح": 5903,
      "تكمّلو": 5904,
      "تنشر": 5905,
      "تانيو": 5906,
      "تكمّلي": 5907,
      "ثر": 5908,
      "جنا": 5909,
      "جمي": 5910,
      "حيت": 5911,
      "حرّف": 5912,
      "حصر": 5913,
      "خرا": 5914,
      "خوا": 5915,
      "دقّ": 5916,
      "دخّلو": 5917,
      "ردع": 5918,
      "روّج": 5919,
      "رفّه": 5920,
      "زاو": 5921,
      "سلّ": 5922,
      "سلّف": 5923,
      "شاي": 5924,
      "شمل": 5925,
      "شدّو": 5926,
      "شيّر": 5927,
      "شاور": 5928,
      "شوّش": 5929,
      "صين": 5930,
      "صنا": 5931,
      "صيا": 5932,
      "صيل": 5933,
      "ضمنو": 5934,
      "طسو": 5935,
      "عدر": 5936,
      "عشي": 5937,
      "غين": 5938,
      "غنا": 5939,
      "غول": 5940,
      "فتو": 5941,
      "قز": 5942,
      "قس": 5943,
      "قرو": 5944,
      "قلب": 5945,
      "كلم": 5946,
      "لق": 5947,
      "لمي": 5948,
      "لوّل": 5949,
      "لهم": 5950,
      "مكان": 5951,
      "مدر": 5952,
      "مدّي": 5953,
      "متّا": 5954,
      "مهرّس": 5955,
      "نتو": 5956,
      "نجا": 5957,
      "نكمّلو": 5958,
      "هة": 5959,
      "هدو": 5960,
      "هرا": 5961,
      "هجّ": 5962,
      "وز": 5963,
      "وال": 5964,
      "وري": 5965,
      "يجي": 5966,
      "يكمّلو": 5967,
      "يمكن": 5968,
      "ڭدو": 5969,
      "ڭدّا": 5970,
      "ato": 5971,
      "ghww": 5972,
      "ghech": 5973,
      "ghelleb": 5974,
      "انقو": 5975,
      "chdded": 5976,
      "tami": 5977,
      "tajo": 5978,
      "tamlo": 5979,
      "khwa": 5980,
      "khab": 5981,
      "khlli": 5982,
      "khlla": 5983,
      "katbda": 5984,
      "katjme3": 5985,
      "كاتز": 5986,
      "كاتفكّر": 5987,
      "كاتخدم": 5988,
      "كاتمسح": 5989,
      "كاتكمّلو": 5990,
      "كاتفهم": 5991,
      "كاتطلب": 5992,
      "كاتحدّد": 5993,
      "كاتنشر": 5994,
      "كاتوقف": 5995,
      "كاتجاوب": 5996,
      "كاتكمّلي": 5997,
      "ghatbda": 5998,
      "ghatjme3": 5999,
      "غاتفكّر": 6000,
      "غاتخدم": 6001,
      "غاتمسح": 6002,
      "غاتكمّلو": 6003,
      "غاتفهم": 6004,
      "غاتطلب": 6005,
      "غاتحدّد": 6006,
      "غاتنشر": 6007,
      "غاتوقف": 6008,
      "غاتجاوب": 6009,
      "غاتكمّلي": 6010,
      "تادرو": 6011,
      "تاسمو": 6012,
      "تاكرو": 6013,
      "تامدو": 6014,
      "erriw": 6015,
      "الف": 6016,
      "اليا": 6017,
      "التوقّع": 6018,
      "التبع": 6019,
      "التحمّل": 6020,
      "moka": 6021,
      "mo3aw": 6022,
      "moha": 6023,
      "mo9dd": 6024,
      "mochta": 6025,
      "wwji": 6026,
      "towr": 6027,
      "tomati": 6028,
      "كايكمّلو": 6029,
      "كاند": 6030,
      "كانكمّلو": 6031,
      "aamin": 6032,
      "ti9a": 6033,
      "غانكمّلو": 6034,
      "غايكمّلو": 6035,
      "توعب": 6036,
      "توقف": 6037,
      "مود": 6038,
      "موتو": 6039,
      "موسي": 6040,
      "موبار": 6041,
      "em3o": 6042,
      "nafs": 6043,
      "do9o": 6044,
      "dozo": 6045,
      "lomo": 6046,
      "lo7o": 6047,
      "loji": 6048,
      "3amlo": 6049,
      "لومو": 6050,
      "لويو": 6051,
      "لوحو": 6052,
      "sadi": 6053,
      "salam": 6054,
      "lib": 6055,
      "lih": 6056,
      "يّة": 6057,
      "يّم": 6058,
      "يّنا": 6059,
      "يّيو": 6060,
      "magadd": 6061,
      "rach": 6062,
      "yy7o": 6063,
      "ريال": 6064,
      "ريجي": 6065,
      "ssem": 6066,
      "دوا": 6067,
      "دويو": 6068,
      "معارض": 6069,
      "معلّم": 6070,
      "رافقو": 6071,
      "راقبو": 6072,
      "ts3oud": 6073,
      "3or": 6074,
      "mi3": 6075,
      "miziw": 6076,
      "kked": 6077,
      "ll9o": 6078,
      "llgho": 6079,
      "تسرّبو": 6080,
      "تسابقو": 6081,
      "ellso": 6082,
      "ellegh": 6083,
      "9ach": 6084,
      "9aj7": 6085,
      "منباهر": 6086,
      "fa2": 6087,
      "biw": 6088,
      "bi3o": 6089,
      "sor": 6090,
      "sodo": 6091,
      "soniw": 6092,
      "ستعرض": 6093,
      "ستتمر": 6094,
      "ستفسر": 6095,
      "t7edded": 6096,
      "9owwdo": 6097,
      "تحلّ": 6098,
      "تحطّ": 6099,
      "تحدّد": 6100,
      "tarmo": 6101,
      "tarso": 6102,
      "7ass": 6103,
      "7amiw": 6104,
      "نوض": 6105,
      "داز": 6106,
      "داك": 6107,
      "داخلي": 6108,
      "تارس": 6109,
      "تارم": 6110,
      "ماغ": 6111,
      "فون": 6112,
      "ja8lo": 6113,
      "3ida": 6114,
      "3i9o": 6115,
      "3icho": 6116,
      "مسي": 6117,
      "فاس": 6118,
      "فاعلو": 6119,
      "تّي": 6120,
      "فرقة": 6121,
      "sta8lo": 6122,
      "fi3li": 6123,
      "kora": 6124,
      "باغي": 6125,
      "تجاوب": 6126,
      "عيات": 6127,
      "عياو": 6128,
      "محرّ": 6129,
      "tbda": 6130,
      "nit": 6131,
      "nodo": 6132,
      "بركان": 6133,
      "ساهمو": 6134,
      "ساعدو": 6135,
      "سافرو": 6136,
      "ساحبو": 6137,
      "سودو": 6138,
      "سوڭو": 6139,
      "كاتّو": 6140,
      "كاتّبع": 6141,
      "9ito": 6142,
      "9i3i": 6143,
      "غاتّو": 6144,
      "غاتّبع": 6145,
      "mtr": 6146,
      "mtll": 6147,
      "عاقبو": 6148,
      "طويو": 6149,
      "قية": 6150,
      "قيق": 6151,
      "قيين": 6152,
      "m3ta": 6153,
      "مشو": 6154,
      "مشار": 6155,
      "مشكو": 6156,
      "twiw": 6157,
      "ستاهلو": 6158,
      "ستاقلو": 6159,
      "kach": 6160,
      "kaml": 6161,
      "متنوّ": 6162,
      "ffdi": 6163,
      "ملعو": 6164,
      "مرض": 6165,
      "مربّ": 6166,
      "مرجّ": 6167,
      "tab3": 6168,
      "tabto": 6169,
      "tabri": 6170,
      "yal": 6171,
      "triniw": 6172,
      "nch2": 6173,
      "nchar": 6174,
      "bbri": 6175,
      "حاما": 6176,
      "حاطّ": 6177,
      "حاجة": 6178,
      "حاميو": 6179,
      "jia": 6180,
      "tdyy": 6181,
      "wiat": 6182,
      "تردّدو": 6183,
      "تبدا": 6184,
      "تبنّاو": 6185,
      "كيز": 6186,
      "كيطة": 6187,
      "kiz": 6188,
      "دمة": 6189,
      "صونيو": 6190,
      "زّزو": 6191,
      "علم": 6192,
      "زون": 6193,
      "شرعي": 6194,
      "هاد": 6195,
      "هائل": 6196,
      "بطا": 6197,
      "zaf": 6198,
      "essno": 6199,
      "tjrr": 6200,
      "tjme3": 6201,
      "tjsseso": 6202,
      "تشدّ": 6203,
      "كركب": 6204,
      "mdro": 6205,
      "chiyyro": 6206,
      "صلة": 6207,
      "lbar": 6208,
      "جاج": 6209,
      "تقلي": 6210,
      "تقسم": 6211,
      "kat7edded": 6212,
      "ghat7edded": 6213,
      "tniw": 6214,
      "tnkhar": 6215,
      "drin": 6216,
      "كاتحلّ": 6217,
      "كاتحطّ": 6218,
      "mrra": 6219,
      "غاتحلّ": 6220,
      "غاتحطّ": 6221,
      "ekko": 6222,
      "8aji": 6223,
      "ghia": 6224,
      "sbbi": 6225,
      "طيل": 6226,
      "ml7o": 6227,
      "mlyo": 6228,
      "saa8mo": 6229,
      "saa3do": 6230,
      "saal7o": 6231,
      "شاء": 6232,
      "aniyin": 6233,
      "8ou": 6234,
      "sr9o": 6235,
      "sr7o": 6236,
      "dowwa": 6237,
      "سرقو": 6238,
      "سرحو": 6239,
      "سرطو": 6240,
      "sebbi": 6241,
      "taflo": 6242,
      "taf3o": 6243,
      "زائ": 6244,
      "زاهي": 6245,
      "مكتا": 6246,
      "homa": 6247,
      "ماتيك": 6248,
      "اراح": 6249,
      "khkhel": 6250,
      "مبدي": 6251,
      "مبرّر": 6252,
      "انية": 6253,
      "انيات": 6254,
      "mj8o": 6255,
      "تحمّلي": 6256,
      "توقّعي": 6257,
      "كمّلتو": 6258,
      "mkll": 6259,
      "mkmm": 6260,
      "مصاي": 6261,
      "دعيو": 6262,
      "نخلة": 6263,
      "77bo": 6264,
      "chr3o": 6265,
      "chrfo": 6266,
      "كاتقسم": 6267,
      "كاتبدا": 6268,
      "ماري": 6269,
      "غاتقسم": 6270,
      "تفهم": 6271,
      "غاتبدا": 6272,
      "شكّو": 6273,
      "غلّب": 6274,
      "n99iw": 6275,
      "تطلب": 6276,
      "w3do": 6277,
      "رتافعو": 6278,
      "رتاكبو": 6279,
      "مزيّر": 6280,
      "شفرو": 6281,
      "جزمو": 6282,
      "eyyiw": 6283,
      "تواعدو": 6284,
      "staghelli": 6285,
      "wsslo": 6286,
      "wss3o": 6287,
      "داويو": 6288,
      "daa3fo": 6289,
      "تضيّ": 6290,
      "wjjdo": 6291,
      "wjj8o": 6292,
      "wjjho": 6293,
      "يسين": 6294,
      "dditi": 6295,
      "خلعو": 6296,
      "tla9aw": 6297,
      "خفّضو": 6298,
      "arres": 6299,
      "daya": 6300,
      "قرار": 6301,
      "خدشو": 6302,
      "مستقبل": 6303,
      "مستغرب": 6304,
      "تلاشا": 6305,
      "taabro": 6306,
      "تهجّا": 6307,
      "طبّوزي": 6308,
      "تساهلو": 6309,
      "9chch": 6310,
      "مشّاو": 6311,
      "skn": 6312,
      "l77o": 6313,
      "wsfo": 6314,
      "عشرة": 6315,
      "صوّتو": 6316,
      "ma3ndo": 6317,
      "yyam": 6318,
      "tmnya": 6319,
      "tmnnaw": 6320,
      "هارو": 6321,
      "تسلّلو": 6322,
      "waazno": 6323,
      "mghro": 6324,
      "جمّدو": 6325,
      "جمّعو": 6326,
      "مغرو": 6327,
      "وصّي": 6328,
      "لعبو": 6329,
      "لعنو": 6330,
      "wd3o": 6331,
      "t9aj7": 6332,
      "bayn": 6333,
      "tghelleb": 6334,
      "ra2isi": 6335,
      "t8ejja": 6336,
      "صحّحو": 6337,
      "خسّرو": 6338,
      "دفّاو": 6339,
      "مؤس": 6340,
      "خطّطو": 6341,
      "التاصل": 6342,
      "جغو": 6343,
      "ديالهوم": 6344,
      "7rg": 6345,
      "fchlo": 6346,
      "abdelha": 6347,
      "bbebo": 6348,
      "saad9o": 6349,
      "جسّدو": 6350,
      "تعوّدو": 6351,
      "تقدّا": 6352,
      "هجمو": 6353,
      "ezerviw": 6354,
      "wggfo": 6355,
      "زرڤيو": 6356,
      "arraro": 6357,
      "ls9o": 6358,
      "mttlo": 6359,
      "diklara": 6360,
      "تسخسخو": 6361,
      "بتاكر": 6362,
      "sta799o": 6363,
      "عانق": 6364,
      "stalzemo": 6365,
      "zzezo": 6366,
      "tri9": 6367,
      "tsennaw": 6368,
      "zda8ro": 6369,
      "جفّو": 6370,
      "غطّيو": 6371,
      "كليان": 6372,
      "ttww3o": 6373,
      "tfkkro": 6374,
      "fekkro": 6375,
      "twess3o": 6376,
      "drdcho": 6377,
      "تساءلو": 6378,
      "دمّعو": 6379,
      "كراهية": 6380,
      "towwelo": 6381,
      "lta79o": 6382,
      "mkkno": 6383,
      "دكّرو": 6384,
      "زداهرو": 6385,
      "ناقشو": 6386,
      "ترجمو": 6387,
      "stowrdo": 6388,
      "همّو": 6389,
      "قاسح": 6390,
      "تعهّدو": 6391,
      "t98waw": 6392,
      "تحاطّو": 6393,
      "zaamn": 6394,
      "هلاك": 6395,
      "لاقيو": 6396,
      "مقبول": 6397,
      "ttekkaw": 6398,
      "دياولهوم": 6399,
      "t9ddaw": 6400,
      "تريني": 6401,
      "tkhellaw": 6402,
      "طراسّيو": 6403,
      "tejjo": 6404,
      "3endo": 6405,
      "غالبا": 6406,
      "ترءّس": 6407,
      "ترءّسو": 6408,
      "أاديو": 6409,
      "تعرض": 6410,
      "tjowwej": 6411,
      "أخلاقي": 6412,
      "t3red": 6413,
      "2aadiw": 6414,
      "دهبي": 6415,
      "سطوكا": 6416,
      "rassiw": 6417,
      "sta9lo": 6418,
      "كاتّوقّع": 6419,
      "كاتّحمّل": 6420,
      "غاتّوقّع": 6421,
      "غاتّحمّل": 6422,
      "mofdda": 6423,
      "t7eddaw": 6424,
      "tmechcha": 6425,
      "قانوني": 6426,
      "mjmo3in": 6427,
      "غنّيو": 6428,
      "taalbo": 6429,
      "imkn": 6430,
      "mo3lli": 6431,
      "موطارا": 6432,
      "laa2mo": 6433,
      "تسالمو": 6434,
      "ستوردو": 6435,
      "ءدّيو": 6436,
      "2eddiw": 6437,
      "تعاملو": 6438,
      "طهلّا": 6439,
      "هندسة": 6440,
      "ماتّافق": 6441,
      "2emmel": 6442,
      "3s": 6443,
      "3ch": 6444,
      "3ya": 6445,
      "3br": 6446,
      "3ani": 6447,
      "3aaw": 6448,
      "3wwl": 6449,
      "3kes": 6450,
      "3rrf": 6451,
      "7er": 6452,
      "7ma": 6453,
      "7ari": 6454,
      "7ello": 6455,
      "7lf": 6456,
      "7elli": 6457,
      "8an": 6458,
      "8ra": 6459,
      "8wa": 6460,
      "8ab": 6461,
      "9la": 6462,
      "9ba": 6463,
      "9der": 6464,
      "ali": 6465,
      "allah": 6466,
      "be": 6467,
      "bn": 6468,
      "bina": 6469,
      "b3d": 6470,
      "d9": 6471,
      "de": 6472,
      "des": 6473,
      "dara": 6474,
      "eq": 6475,
      "f9": 6476,
      "flo": 6477,
      "ffo": 6478,
      "fssro": 6479,
      "gar": 6480,
      "gro": 6481,
      "gli": 6482,
      "jara": 6483,
      "kemm": 6484,
      "ktb": 6485,
      "kina": 6486,
      "ktachf": 6487,
      "lt": 6488,
      "lar": 6489,
      "lyo": 6490,
      "lgu": 6491,
      "lwiw": 6492,
      "myy": 6493,
      "m9a": 6494,
      "m3al": 6495,
      "mgab": 6496,
      "mfrg": 6497,
      "meddedo": 6498,
      "mliw": 6499,
      "mraj": 6500,
      "nkr": 6501,
      "nzl": 6502,
      "nsa7": 6503,
      "nkhafd": 6504,
      "rd": 6505,
      "raaf": 6506,
      "rtakb": 6507,
      "s5": 6508,
      "se": 6509,
      "sf": 6510,
      "skh": 6511,
      "swa": 6512,
      "sya": 6513,
      "sari": 6514,
      "skhkhen": 6515,
      "s77a": 6516,
      "se77": 6517,
      "tli": 6518,
      "tha": 6519,
      "tla7": 6520,
      "tmenna": 6521,
      "vi": 6522,
      "wya": 6523,
      "wej": 6524,
      "wlli": 6525,
      "zla": 6526,
      "zyyno": 6527,
      "zglo": 6528,
      "zrrbo": 6529,
      "ءسّ": 6530,
      "ءقّات": 6531,
      "أخر": 6532,
      "أفين": 6533,
      "أمري": 6534,
      "إقتراح": 6535,
      "ئم": 6536,
      "اق": 6537,
      "بز": 6538,
      "ببغا": 6539,
      "تة": 6540,
      "تلي": 6541,
      "تني": 6542,
      "تميّزو": 6543,
      "جدي": 6544,
      "جدّدو": 6545,
      "جدري": 6546,
      "جدبو": 6547,
      "جاوبي": 6548,
      "حنا": 6549,
      "حني": 6550,
      "خشي": 6551,
      "دكي": 6552,
      "رڭ": 6553,
      "رملة": 6554,
      "زنا": 6555,
      "سرا": 6556,
      "سمّا": 6557,
      "ساوي": 6558,
      "ستسلم": 6559,
      "سطّر": 6560,
      "شات": 6561,
      "شرا": 6562,
      "شكل": 6563,
      "شهد": 6564,
      "صحا": 6565,
      "صلّا": 6566,
      "صباح": 6567,
      "صدمة": 6568,
      "ضاب": 6569,
      "ضوّيو": 6570,
      "ضمّني": 6571,
      "طمّا": 6572,
      "عني": 6573,
      "عدم": 6574,
      "عنق": 6575,
      "عوّض": 6576,
      "عڭّز": 6577,
      "غدّا": 6578,
      "فينا": 6579,
      "فصلو": 6580,
      "فسّرو": 6581,
      "كد": 6582,
      "كما": 6583,
      "كتر": 6584,
      "لان": 6585,
      "لڭو": 6586,
      "لهمو": 6587,
      "لحد": 6588,
      "لوّنو": 6589,
      "مبا": 6590,
      "مراج": 6591,
      "ملاح": 6592,
      "مفرڭ": 6593,
      "مميّز": 6594,
      "ممكن": 6595,
      "نم": 6596,
      "نى": 6597,
      "نفي": 6598,
      "نضّ": 6599,
      "نتاقد": 6600,
      "نقاش": 6601,
      "نهائي": 6602,
      "هات": 6603,
      "هلي": 6604,
      "وقو": 6605,
      "وضع": 6606,
      "ولّا": 6607,
      "وكّل": 6608,
      "وحّد": 6609,
      "يق": 6610,
      "يري": 6611,
      "ّي": 6612,
      "ڤو": 6613,
      "ڤي": 6614,
      "ڭن": 6615,
      "اتفق": 6616,
      "اتحاد": 6617,
      "ghab": 6618,
      "ghdb": 6619,
      "ghbro": 6620,
      "ghzlo": 6621,
      "ghslo": 6622,
      "ghwwto": 6623,
      "انڭ": 6624,
      "chdi": 6625,
      "chkk": 6626,
      "ايج": 6627,
      "tak": 6628,
      "tafa": 6629,
      "tabi": 6630,
      "kht": 6631,
      "khrj": 6632,
      "khdam": 6633,
      "khddm": 6634,
      "khbba": 6635,
      "katkemmel": 6636,
      "katsog": 6637,
      "كاتنتج": 6638,
      "كاتخلّص": 6639,
      "كاتصبّ": 6640,
      "كاتلحّ": 6641,
      "ghatkemmel": 6642,
      "ghatsog": 6643,
      "غاتنتج": 6644,
      "غاتصبّ": 6645,
      "غاتلحّ": 6646,
      "تاميو": 6647,
      "تاخبو": 6648,
      "الة": 6649,
      "التو": 6650,
      "mow": 6651,
      "momi": 6652,
      "mosi": 6653,
      "mo9i": 6654,
      "mosaa": 6655,
      "لّغي": 6656,
      "وّت": 6657,
      "وّري": 6658,
      "wwdi": 6659,
      "wwrat": 6660,
      "كايقتل": 6661,
      "kand": 6662,
      "ti9i": 6663,
      "توح": 6664,
      "موصّ": 6665,
      "موهي": 6666,
      "موڭّ": 6667,
      "موصلي": 6668,
      "مومتا": 6669,
      "موءقّات": 6670,
      "ارح": 6671,
      "lot": 6672,
      "3ach": 6673,
      "3ada": 6674,
      "لون": 6675,
      "la9i": 6676,
      "lacha": 6677,
      "روني": 6678,
      "ناف": 6679,
      "ttat": 6680,
      "safa": 6681,
      "saari": 6682,
      "sa8el": 6683,
      "salm": 6684,
      "ebba": 6685,
      "تيق": 6686,
      "تيري": 6687,
      "liss": 6688,
      "machi": 6689,
      "rag": 6690,
      "rada": 6691,
      "مّم": 6692,
      "boch": 6693,
      "بولي": 6694,
      "da2": 6695,
      "da9": 6696,
      "sse3": 6697,
      "ssir": 6698,
      "يوا": 6699,
      "دولة": 6700,
      "معبو": 6701,
      "معقو": 6702,
      "معيّن": 6703,
      "معدة": 6704,
      "معانا": 6705,
      "راش": 6706,
      "راف": 6707,
      "رائع": 6708,
      "mita": 6709,
      "milo": 6710,
      "mitaa": 6711,
      "kko": 6712,
      "منقّ": 6713,
      "منفّ": 6714,
      "منعي": 6715,
      "fak": 6716,
      "fach": 6717,
      "ديت": 6718,
      "ديما": 6719,
      "bila": 6720,
      "ستع": 6721,
      "ستقبل": 6722,
      "ستهلاك": 6723,
      "wa2i": 6724,
      "jji": 6725,
      "st3rdo": 6726,
      "stkhdmo": 6727,
      "strj3o": 6728,
      "stkhrjo": 6729,
      "ميه": 6730,
      "ميات": 6731,
      "mnba": 6732,
      "mn3i": 6733,
      "mnff": 6734,
      "سّط": 6735,
      "سّري": 6736,
      "تحكم": 6737,
      "تحليل": 6738,
      "tarfi": 6739,
      "7ab": 6740,
      "نور": 6741,
      "نوبت": 6742,
      "داخ": 6743,
      "تعبير": 6744,
      "7owwli": 6745,
      "ja3": 6746,
      "مسلّ": 6747,
      "مسدود": 6748,
      "مسيف": 6749,
      "مسكين": 6750,
      "مسرح": 6751,
      "iw9": 6752,
      "etta": 6753,
      "فازڭ": 6754,
      "تّو": 6755,
      "تّاني": 6756,
      "kolla": 6757,
      "باش": 6758,
      "تجو": 6759,
      "تجسّ": 6760,
      "تجسّسو": 6761,
      "emmed": 6762,
      "عيين": 6763,
      "عيقو": 6764,
      "عيشو": 6765,
      "محي": 6766,
      "محنّ": 6767,
      "فيات": 6768,
      "mmed": 6769,
      "mmes": 6770,
      "طّد": 6771,
      "برد": 6772,
      "ساء": 6773,
      "سواو": 6774,
      "9iti": 6775,
      "9iso": 6776,
      "كولّ": 6777,
      "حوايج": 6778,
      "عامي": 6779,
      "frdi": 6780,
      "قيسو": 6781,
      "قيمة": 6782,
      "طوّع": 6783,
      "jowwjo": 6784,
      "قدّمي": 6785,
      "m3at": 6786,
      "m3dd": 6787,
      "m3yy": 6788,
      "m3bo": 6789,
      "m3ga": 6790,
      "twedd": 6791,
      "نّة": 6792,
      "ستاحق": 6793,
      "ستاغلو": 6794,
      "kaw": 6795,
      "هور": 6796,
      "t3li": 6797,
      "متفاء": 6798,
      "متشاء": 6799,
      "لبارح": 6800,
      "ملهم": 6801,
      "مركّ": 6802,
      "مرتّ": 6803,
      "zira": 6804,
      "خلّطي": 6805,
      "نشطو": 6806,
      "m7ro": 6807,
      "m7rr": 6808,
      "حادّ": 6809,
      "وافقو": 6810,
      "وازنو": 6811,
      "ترينا": 6812,
      "كية": 6813,
      "كيم": 6814,
      "قلّق": 6815,
      "صوت": 6816,
      "زّع": 6817,
      "hada": 6818,
      "درين": 6819,
      "درهم": 6820,
      "يرات": 6821,
      "هاجي": 6822,
      "e8mi": 6823,
      "ضّحو": 6824,
      "عاوتّاني": 6825,
      "عالا": 6826,
      "عالم": 6827,
      "essed": 6828,
      "esses": 6829,
      "عدة": 6830,
      "تشاب": 6831,
      "khdmat": 6832,
      "sl7i": 6833,
      "slliw": 6834,
      "md3o": 6835,
      "chofi": 6836,
      "مدعو": 6837,
      "مدخول": 6838,
      "جازيو": 6839,
      "smmiw": 6840,
      "ghali": 6841,
      "كافي": 6842,
      "3lan": 6843,
      "شوفي": 6844,
      "ntji": 6845,
      "sbin": 6846,
      "sbgho": 6847,
      "تخر": 6848,
      "ml3o": 6849,
      "رجعي": 6850,
      "شامل": 6851,
      "aniat": 6852,
      "وقفي": 6853,
      "w9fi": 6854,
      "طام": 6855,
      "طادم": 6856,
      "عبري": 6857,
      "سمطة": 6858,
      "مقسّ": 6859,
      "gadda": 6860,
      "9ddri": 6861,
      "df3i": 6862,
      "طلعو": 6863,
      "تلج": 6864,
      "rati": 6865,
      "شيطة": 6866,
      "n7arfo": 6867,
      "مبني": 6868,
      "yor": 6869,
      "تكبّ": 6870,
      "aaj8": 6871,
      "aaj3i": 6872,
      "mjmo3": 6873,
      "n3so": 6874,
      "ختارعو": 6875,
      "ختارقو": 6876,
      "شاري": 6877,
      "شارجيو": 6878,
      "zze3": 6879,
      "مصلو": 6880,
      "دعمي": 6881,
      "77ed": 6882,
      "mbni": 6883,
      "فقة": 6884,
      "d3mi": 6885,
      "charjiw": 6886,
      "ڭادّا": 6887,
      "خدّمي": 6888,
      "هيب": 6889,
      "تفرّ": 6890,
      "فرڭعي": 6891,
      "تعاوني": 6892,
      "7att": 6893,
      "khol": 6894,
      "khon": 6895,
      "شكّلي": 6896,
      "faj2o": 6897,
      "8il": 6898,
      "خويو": 6899,
      "خونو": 6900,
      "darbo": 6901,
      "حاولي": 6902,
      "رتّبي": 6903,
      "مانا": 6904,
      "naasbo": 6905,
      "مزرو": 6906,
      "خرة": 6907,
      "وڭّفو": 6908,
      "mzro": 6909,
      "مضوّ": 6910,
      "ftardi": 6911,
      "قبلي": 6912,
      "staghlo": 6913,
      "nj7o": 6914,
      "njarfo": 6915,
      "فتارضي": 6916,
      "دفعي": 6917,
      "حسّا": 6918,
      "هّد": 6919,
      "2ettri": 6920,
      "مفهوم": 6921,
      "وجّدو": 6922,
      "ورتو": 6923,
      "twe993i": 6924,
      "m2dd": 6925,
      "m2lo": 6926,
      "m2tt": 6927,
      "al8am": 6928,
      "sti3": 6929,
      "وضّحي": 6930,
      "طلّب": 6931,
      "laa9iw": 6932,
      "خاطئ": 6933,
      "دوّري": 6934,
      "دايا": 6935,
      "mo3ddi": 6936,
      "خارق": 6937,
      "صوّري": 6938,
      "وقّفو": 6939,
      "وصفو": 6940,
      "حاليا": 6941,
      "mghlo": 6942,
      "وصّا": 6943,
      "وصّلو": 6944,
      "موعتاب": 6945,
      "موعدّي": 6946,
      "لعشا": 6947,
      "باطء": 6948,
      "nta9mo": 6949,
      "baynin": 6950,
      "إلكت": 6951,
      "تطوّري": 6952,
      "مالا": 6953,
      "نتاخب": 6954,
      "mas7": 6955,
      "فشكل": 6956,
      "الحج": 6957,
      "الحمد": 6958,
      "معاه": 6959,
      "mosli": 6960,
      "ملائم": 6961,
      "تخلّصو": 6962,
      "تجاهلو": 6963,
      "تقدّمو": 6964,
      "عندهوم": 6965,
      "زايد": 6966,
      "jaaziw": 6967,
      "لصقو": 6968,
      "توفّاو": 6969,
      "تجنّبو": 6970,
      "jarra": 6971,
      "atter": 6972,
      "باينين": 6973,
      "غطّا": 6974,
      "tiyybo": 6975,
      "بلوكا": 6976,
      "فاوض": 6977,
      "طويير": 6978,
      "yawmi": 6979,
      "chowwcho": 6980,
      "شافيو": 6981,
      "ستلزمو": 6982,
      "dkkro": 6983,
      "تباطء": 6984,
      "لتاحقو": 6985,
      "ستنزفو": 6986,
      "naachdo": 6987,
      "imprimiw": 6988,
      "tstagh": 6989,
      "محلول": 6990,
      "stelzmo": 6991,
      "ترينيو": 6992,
      "ڭدّام": 6993,
      "mora8i": 6994,
      "ستهلكو": 6995,
      "stetmro": 6996,
      "st9blo": 6997,
      "ste8lko": 6998,
      "dffaw": 6999,
      "موناسيبا": 7000,
      "موناسيبات": 7001,
      "موناسيبين": 7002,
      "7eyya": 7003,
      "سكّر": 7004,
      "تحدّاو": 7005,
      "زاعم": 7006,
      "stfsro": 7007,
      "ste2nfo": 7008,
      "رياضي": 7009,
      "d7ko": 7010,
      "ستءنفو": 7011,
      "دهب": 7012,
      "tarikhi": 7013,
      "tsab9": 7014,
      "darori": 7015,
      "أدى": 7016,
      "khasara": 7017,
      "فلبلاصة": 7018,
      "لله": 7019,
      "تازعو": 7020,
      "sa2el": 7021,
      "مقسوم": 7022,
      "صراحة": 7023,
      "ضوّا": 7024,
      "مزيان": 7025,
      "mojta": 7026,
      "diawl": 7027,
      "مسطّح": 7028,
      "a9arr": 7029,
      "موءكّا": 7030,
      "منطقة": 7031,
      "تقهواو": 7032,
      "be3d": 7033,
      "سابقا": 7034,
      "متوسّط": 7035,
      "منتوج": 7036,
      "محروڭ": 7037,
      "مكلّخ": 7038,
      "ntaz3o": 7039,
      "بشوية": 7040,
      "تمويل": 7041,
      "معصّب": 7042,
      "تنضيمي": 7043,
      "كلمة": 7044,
      "ببغاء": 7045,
      "3edd": 7046,
      "3di": 7047,
      "3ell": 7048,
      "3fi": 7049,
      "3emm": 7050,
      "3aal": 7051,
      "3zl": 7052,
      "3llem": 7053,
      "3ggez": 7054,
      "5ay": 7055,
      "7to": 7056,
      "7ss": 7057,
      "7aaw": 7058,
      "7lm": 7059,
      "7dder": 7060,
      "7rref": 7061,
      "7etti": 7062,
      "7la9": 7063,
      "7aafd": 7064,
      "8na": 7065,
      "8dro": 7066,
      "8mlo": 7067,
      "8ddedo": 7068,
      "8dmo": 7069,
      "8zzo": 7070,
      "9s": 7071,
      "9el": 7072,
      "9aaw": 7073,
      "9me3": 7074,
      "9yyd": 7075,
      "amer": 7076,
      "akhor": 7077,
      "b8er": 7078,
      "bzza": 7079,
      "dbi": 7080,
      "dwa": 7081,
      "e3a": 7082,
      "esa": 7083,
      "f8": 7084,
      "gdda": 7085,
      "hel": 7086,
      "hwa": 7087,
      "jss": 7088,
      "jari": 7089,
      "kfa": 7090,
      "kdb": 7091,
      "kellef": 7092,
      "kbir": 7093,
      "kbbr": 7094,
      "lwa": 7095,
      "l7a": 7096,
      "l7i": 7097,
      "lbal": 7098,
      "lwali": 7099,
      "m7o": 7100,
      "mari": 7101,
      "mt7o": 7102,
      "nsa": 7103,
      "nef": 7104,
      "nb7": 7105,
      "ndm": 7106,
      "nddm": 7107,
      "nsse9": 7108,
      "ot": 7109,
      "rdd": 7110,
      "rem": 7111,
      "rkeb": 7112,
      "rde3": 7113,
      "sara": 7114,
      "sder": 7115,
      "seddo": 7116,
      "sne3": 7117,
      "stter": 7118,
      "semmem": 7119,
      "s77e7": 7120,
      "staredd": 7121,
      "srre3": 7122,
      "s88": 7123,
      "te3": 7124,
      "te9": 7125,
      "tes": 7126,
      "tza": 7127,
      "t2a": 7128,
      "tfrg": 7129,
      "t3alj": 7130,
      "tmse7": 7131,
      "tn9el": 7132,
      "tkowwen": 7133,
      "teyyeb": 7134,
      "we9": 7135,
      "xi": 7136,
      "ykhss": 7137,
      "zrb": 7138,
      "ؤال": 7139,
      "إز": 7140,
      "إجمع": 7141,
      "إمپري": 7142,
      "ئب": 7143,
      "ئح": 7144,
      "از": 7145,
      "امن": 7146,
      "بد": 7147,
      "بلي": 7148,
      "بعو": 7149,
      "بنج": 7150,
      "بدّلو": 7151,
      "بيّا": 7152,
      "بلوكي": 7153,
      "تمي": 7154,
      "تما": 7155,
      "تبي": 7156,
      "تها": 7157,
      "تختالف": 7158,
      "تربح": 7159,
      "تڭلس": 7160,
      "تنقل": 7161,
      "تلبس": 7162,
      "تءتّر": 7163,
      "ثة": 7164,
      "جدّ": 7165,
      "جتي": 7166,
      "جما": 7167,
      "جزا": 7168,
      "جريو": 7169,
      "حجّ": 7170,
      "حنش": 7171,
      "حشر": 7172,
      "حيّن": 7173,
      "حمار": 7174,
      "حرّكو": 7175,
      "حيّا": 7176,
      "حفلة": 7177,
      "خمّنو": 7178,
      "خرّبو": 7179,
      "خزنو": 7180,
      "خريف": 7181,
      "خضعو": 7182,
      "خسرو": 7183,
      "خنقو": 7184,
      "دنو": 7185,
      "درب": 7186,
      "دعا": 7187,
      "دلاح": 7188,
      "دنب": 7189,
      "دخّ": 7190,
      "دراب": 7191,
      "دغيا": 7192,
      "ربيع": 7193,
      "رطّب": 7194,
      "زلا": 7195,
      "زعلل": 7196,
      "زڭّان": 7197,
      "سما": 7198,
      "سابق": 7199,
      "سجّلو": 7200,
      "سلّو": 7201,
      "سالا": 7202,
      "سرّع": 7203,
      "سؤال": 7204,
      "شهو": 7205,
      "شعر": 7206,
      "شجا": 7207,
      "شطر": 7208,
      "شحن": 7209,
      "شتارك": 7210,
      "صڭ": 7211,
      "صات": 7212,
      "صلا": 7213,
      "صفر": 7214,
      "صحو": 7215,
      "صرّفو": 7216,
      "صغير": 7217,
      "صهض": 7218,
      "ضم": 7219,
      "ضبع": 7220,
      "طاو": 7221,
      "طمع": 7222,
      "طبل": 7223,
      "طنجي": 7224,
      "ظر": 7225,
      "عم": 7226,
      "عّ": 7227,
      "عزي": 7228,
      "عملي": 7229,
      "عقلي": 7230,
      "عجل": 7231,
      "غب": 7232,
      "غلا": 7233,
      "غزال": 7234,
      "فص": 7235,
      "فن": 7236,
      "فلي": 7237,
      "فلّا": 7238,
      "فرّج": 7239,
      "قط": 7240,
      "قتص": 7241,
      "قسام": 7242,
      "كبح": 7243,
      "كلين": 7244,
      "كبّد": 7245,
      "لقي": 7246,
      "لزم": 7247,
      "لخمي": 7248,
      "لبرد": 7249,
      "مطلّ": 7250,
      "مڭر": 7251,
      "مفضّل": 7252,
      "مدية": 7253,
      "مبلغ": 7254,
      "نجمع": 7255,
      "نسّق": 7256,
      "هق": 7257,
      "هنا": 7258,
      "هجّا": 7259,
      "واي": 7260,
      "وتي": 7261,
      "ودن": 7262,
      "يجمع": 7263,
      "يمپريمي": 7264,
      "ڭمح": 7265,
      "ڭية": 7266,
      "ڭرة": 7267,
      "gher": 7268,
      "ghrb": 7269,
      "ghara": 7270,
      "ghliw": 7271,
      "ghnniw": 7272,
      "chb": 7273,
      "chfr": 7274,
      "chtab": 7275,
      "chfar": 7276,
      "chrref": 7277,
      "chtark": 7278,
      "اير": 7279,
      "talb": 7280,
      "taseb": 7281,
      "khel": 7282,
      "khbbi": 7283,
      "khffed": 7284,
      "khella": 7285,
      "khrreb": 7286,
      "khraj": 7287,
      "khne9": 7288,
      "khttet": 7289,
      "khrbe9": 7290,
      "kattowwer": 7291,
      "kat3alj": 7292,
      "katt7emmel": 7293,
      "kat3red": 7294,
      "katmse7": 7295,
      "katn9el": 7296,
      "kattbe3": 7297,
      "katbddel": 7298,
      "kattleb": 7299,
      "kat3len": 7300,
      "katkmmel": 7301,
      "كاتحدّ": 7302,
      "كاتنس": 7303,
      "كاتعرض": 7304,
      "كاتختالف": 7305,
      "كاتربح": 7306,
      "كاتدفع": 7307,
      "كاتركّز": 7308,
      "كاتڭلس": 7309,
      "كاترتّب": 7310,
      "كاتنقل": 7311,
      "كاتلبس": 7312,
      "كاتءتّر": 7313,
      "كاتخدّم": 7314,
      "ghattowwer": 7315,
      "ghat3alj": 7316,
      "ghatt7emmel": 7317,
      "ghat3red": 7318,
      "ghatmse7": 7319,
      "ghatn9el": 7320,
      "ghattbe3": 7321,
      "ghatbddel": 7322,
      "ghattleb": 7323,
      "ghat3len": 7324,
      "ghatkmmel": 7325,
      "غاتحدّ": 7326,
      "غاتنس": 7327,
      "غاتخلّص": 7328,
      "غاتعرض": 7329,
      "غاتختالف": 7330,
      "غاتربح": 7331,
      "غاتدفع": 7332,
      "غاتركّز": 7333,
      "غاتڭلس": 7334,
      "غاترتّب": 7335,
      "غاتنقل": 7336,
      "غاتلبس": 7337,
      "غاتءتّر": 7338,
      "غاتخدّم": 7339,
      "تاش": 7340,
      "تافل": 7341,
      "تافضو": 7342,
      "dde7": 7343,
      "intaj": 7344,
      "ينقّ": 7345,
      "دّلا": 7346,
      "دّام": 7347,
      "الين": 7348,
      "المح": 7349,
      "الضو": 7350,
      "التعاون": 7351,
      "الصي": 7352,
      "الخمي": 7353,
      "mob": 7354,
      "motta": 7355,
      "modr": 7356,
      "mo3ta": 7357,
      "momk": 7358,
      "mota7": 7359,
      "mo9ar": 7360,
      "لّات": 7361,
      "لّقي": 7362,
      "wwn": 7363,
      "wwir": 7364,
      "ton": 7365,
      "kayd": 7366,
      "kayj": 7367,
      "كايجمع": 7368,
      "كانجمع": 7369,
      "aab": 7370,
      "ti9o": 7371,
      "ti7o": 7372,
      "tiriw": 7373,
      "غانجمع": 7374,
      "غايجمع": 7375,
      "توسّعو": 7376,
      "توماتيك": 7377,
      "مور": 7378,
      "موسّ": 7379,
      "موخا": 7380,
      "مولات": 7381,
      "موماي": 7382,
      "اركو": 7383,
      "namaj": 7384,
      "اوم": 7385,
      "loki": 7386,
      "3ak": 7387,
      "لوت": 7388,
      "نامو": 7389,
      "نادم": 7390,
      "نادر": 7391,
      "نامج": 7392,
      "ناسبو": 7393,
      "نافس": 7394,
      "نائي": 7395,
      "ناشدو": 7396,
      "ttch": 7397,
      "sa2i": 7398,
      "lis": 7399,
      "lian": 7400,
      "يّين": 7401,
      "mah": 7402,
      "ma9a": 7403,
      "ma7a": 7404,
      "mamlo": 7405,
      "entj": 7406,
      "yyin": 7407,
      "مّري": 7408,
      "bo7d": 7409,
      "بوحد": 7410,
      "da7": 7411,
      "dama": 7412,
      "dakhl": 7413,
      "ssel": 7414,
      "يوڭ": 7415,
      "معنا": 7416,
      "معكّ": 7417,
      "معتار": 7418,
      "معجو": 7419,
      "معدّل": 7420,
      "معهد": 7421,
      "معزة": 7422,
      "معطّل": 7423,
      "tsedd": 7424,
      "tstkh": 7425,
      "tsif": 7426,
      "tstow3": 7427,
      "mim": 7428,
      "لاشا": 7429,
      "لاخرة": 7430,
      "كّاي": 7431,
      "كّزو": 7432,
      "kken": 7433,
      "llso": 7434,
      "baba": 7435,
      "تست": 7436,
      "تسجّل": 7437,
      "تسخّ": 7438,
      "تسيف": 7439,
      "تستنتج": 7440,
      "9af": 7441,
      "منقار": 7442,
      "منزاع": 7443,
      "faq": 7444,
      "fasi": 7445,
      "بّتي": 7446,
      "ابل": 7447,
      "jjal": 7448,
      "steb": 7449,
      "sted": 7450,
      "t7a": 7451,
      "t7i": 7452,
      "t7t": 7453,
      "ميكاني": 7454,
      "9ou": 7455,
      "9odi": 7456,
      "mnat": 7457,
      "سّا": 7458,
      "سّن": 7459,
      "سّعي": 7460,
      "تحاول": 7461,
      "تحقّق": 7462,
      "tardo": 7463,
      "نوع": 7464,
      "نوق": 7465,
      "دائ": 7466,
      "تارحو": 7467,
      "تعلب": 7468,
      "ماص": 7469,
      "ماملو": 7470,
      "fo9": 7471,
      "fog": 7472,
      "fon": 7473,
      "ja7": 7474,
      "jami": 7475,
      "3ir": 7476,
      "3iyyni": 7477,
      "قاصر": 7478,
      "قاجح": 7479,
      "فاش": 7480,
      "فاض": 7481,
      "تّت": 7482,
      "فرة": 7483,
      "فّا": 7484,
      "stad": 7485,
      "fi9i": 7486,
      "kola": 7487,
      "komi": 7488,
      "koni": 7489,
      "تجرّ": 7490,
      "تجربة": 7491,
      "emmla": 7492,
      "emmlin": 7493,
      "محاو": 7494,
      "محرّك": 7495,
      "محطة": 7496,
      "محسّو": 7497,
      "ربق": 7498,
      "ربحي": 7499,
      "ربطي": 7500,
      "tbta": 7501,
      "tbaa": 7502,
      "tbghi": 7503,
      "tbddel": 7504,
      "فير": 7505,
      "فيقي": 7506,
      "فيها": 7507,
      "فيهوم": 7508,
      "nito": 7509,
      "niti": 7510,
      "nobt": 7511,
      "mmem": 7512,
      "mmri": 7513,
      "mm3i": 7514,
      "طّع": 7515,
      "برنامج": 7516,
      "ساكن": 7517,
      "سائح": 7518,
      "كاتّعاون": 7519,
      "كاتّفاعل": 7520,
      "كاتّمنّا": 7521,
      "msh": 7522,
      "msar": 7523,
      "mstt": 7524,
      "msara": 7525,
      "غاتّعاون": 7526,
      "غاتّفاعل": 7527,
      "غاتّمنّا": 7528,
      "mteddi": 7529,
      "mt2tt": 7530,
      "نية": 7531,
      "نيدق": 7532,
      "عاطي": 7533,
      "عازل": 7534,
      "طوانڭ": 7535,
      "n9di": 7536,
      "cha2": 7537,
      "cham": 7538,
      "chafa": 7539,
      "cha8i": 7540,
      "m3kk": 7541,
      "m3tar": 7542,
      "m3jo": 7543,
      "m39ol": 7544,
      "مشلّل": 7545,
      "مشمّش": 7546,
      "مشتّت": 7547,
      "نّاي": 7548,
      "هوب": 7549,
      "t3ta9": 7550,
      "متدّي": 7551,
      "متشرّف": 7552,
      "متردّد": 7553,
      "لبسي": 7554,
      "ملحة": 7555,
      "مرشو": 7556,
      "مرفق": 7557,
      "tabt": 7558,
      "tab3an": 7559,
      "tlat": 7560,
      "trtteb": 7561,
      "zi3": 7562,
      "t9edder": 7563,
      "m7err": 7564,
      "m799e9": 7565,
      "m7e99e9": 7566,
      "m7sso": 7567,
      "سبت": 7568,
      "واه": 7569,
      "واضح": 7570,
      "jibi": 7571,
      "jiha": 7572,
      "tdaaf": 7573,
      "wid": 7574,
      "تركّز": 7575,
      "ترتّب": 7576,
      "تركيز": 7577,
      "تبغي": 7578,
      "تبدّل": 7579,
      "tkhffef": 7580,
      "ختابري": 7581,
      "صونا": 7582,
      "زيع": 7583,
      "جيل": 7584,
      "hadi": 7585,
      "ejj3i": 7586,
      "toww9i": 7587,
      "نقدي": 7588,
      "التمن": 7589,
      "التفاعل": 7590,
      "التمنّا": 7591,
      "ttasl": 7592,
      "هاما": 7593,
      "هاكّا": 7594,
      "7it": 7595,
      "عالمي": 7596,
      "essi": 7597,
      "تشو": 7598,
      "تشري": 7599,
      "تشبّتو": 7600,
      "mdy": 7601,
      "mderreb": 7602,
      "عربي": 7603,
      "chid": 7604,
      "chiro": 7605,
      "2im": 7606,
      "تقبط": 7607,
      "تقهوا": 7608,
      "ghadri": 7609,
      "tnta9": 7610,
      "drto": 7611,
      "drna": 7612,
      "جمعت": 7613,
      "جمعات": 7614,
      "جمعتو": 7615,
      "جمعنا": 7616,
      "جمعتي": 7617,
      "كاتحاول": 7618,
      "كاتحكم": 7619,
      "كاتحقّق": 7620,
      "mrat": 7621,
      "mrin": 7622,
      "mrjj": 7623,
      "mrcho": 7624,
      "نعسو": 7625,
      "نعناع": 7626,
      "غاتحاول": 7627,
      "غاتحكم": 7628,
      "غاتحقّق": 7629,
      "8al": 7630,
      "فعليا": 7631,
      "ntra": 7632,
      "arib": 7633,
      "تخطي": 7634,
      "mlki": 7635,
      "kattfa": 7636,
      "نسر": 7637,
      "نسبيا": 7638,
      "8od": 7639,
      "m9no": 7640,
      "لمغرب": 7641,
      "طاڭية": 7642,
      "هربي": 7643,
      "مقص": 7644,
      "مقتو": 7645,
      "مقطو": 7646,
      "ga3": 7647,
      "كاتعجب": 7648,
      "غاتعجب": 7649,
      "تابس": 7650,
      "nnay": 7651,
      "ڭلسي": 7652,
      "ڭلميم": 7653,
      "glsi": 7654,
      "تاقدي": 7655,
      "مكرو": 7656,
      "مكبو": 7657,
      "مكسو": 7658,
      "tkmm": 7659,
      "tkmmel": 7660,
      "طلقي": 7661,
      "طلطّاش": 7662,
      "hoa": 7663,
      "hod": 7664,
      "howa": 7665,
      "شيد": 7666,
      "شيرو": 7667,
      "ntamiw": 7668,
      "tfekk": 7669,
      "زعتر": 7670,
      "تدفع": 7671,
      "تدريجي": 7672,
      "مبلوكي": 7673,
      "نحت": 7674,
      "نحارفو": 7675,
      "ضيق": 7676,
      "تكتا": 7677,
      "تكلّفو": 7678,
      "تكوّنو": 7679,
      "nkhtar": 7680,
      "طوّرتو": 7681,
      "طوّرنا": 7682,
      "سخو": 7683,
      "mkro": 7684,
      "mkbo": 7685,
      "mkso": 7686,
      "غربي": 7687,
      "غرقي": 7688,
      "هلك": 7689,
      "kat9edder": 7690,
      "mkhtar": 7691,
      "مصبو": 7692,
      "z3ji": 7693,
      "ghat9edder": 7694,
      "3dmo": 7695,
      "3dro": 7696,
      "gor": 7697,
      "katkhffef": 7698,
      "ghatkhffef": 7699,
      "فقسة": 7700,
      "chreb": 7701,
      "chrbo": 7702,
      "ghreb": 7703,
      "ghr9i": 7704,
      "katsedd": 7705,
      "ssa7": 7706,
      "ssab": 7707,
      "ssas": 7708,
      "خدمات": 7709,
      "katrtteb": 7710,
      "كاتقبط": 7711,
      "ghatsedd": 7712,
      "ڭاع": 7713,
      "ghatrtteb": 7714,
      "حلّلو": 7715,
      "حلّاق": 7716,
      "lla9": 7717,
      "llab": 7718,
      "llal": 7719,
      "خدّا": 7720,
      "ديني": 7721,
      "كاتبغي": 7722,
      "كاتبدّل": 7723,
      "غاتقبط": 7724,
      "جبهة": 7725,
      "نجحو": 7726,
      "نجارفو": 7727,
      "فاجري": 7728,
      "تفح": 7729,
      "تفوّه": 7730,
      "tsaw": 7731,
      "غاتبغي": 7732,
      "غاتبدّل": 7733,
      "كاتسجّل": 7734,
      "غاتسجّل": 7735,
      "تعاود": 7736,
      "fajri": 7737,
      "تطار": 7738,
      "تطابقو": 7739,
      "كانّقّ": 7740,
      "غانّقّ": 7741,
      "حاورو": 7742,
      "حتاجو": 7743,
      "حتافلو": 7744,
      "قاطعي": 7745,
      "مخف": 7746,
      "مخدو": 7747,
      "مخسو": 7748,
      "مخبّي": 7749,
      "i3ti": 7750,
      "9aat3i": 7751,
      "7awli": 7752,
      "مضبّب": 7753,
      "khtar3o": 7754,
      "khtar9o": 7755,
      "هرّسي": 7756,
      "يتيم": 7757,
      "بادلي": 7758,
      "إنقّ": 7759,
      "إنزڭّان": 7760,
      "قاومو": 7761,
      "قلق": 7762,
      "قلمي": 7763,
      "نبڭ": 7764,
      "يسعد": 7765,
      "ddito": 7766,
      "حرقو": 7767,
      "حرڭو": 7768,
      "زرق": 7769,
      "زربي": 7770,
      "8rbi": 7771,
      "حسّنو": 7772,
      "مفيّ": 7773,
      "مفحو": 7774,
      "مفتوح": 7775,
      "khatro": 7776,
      "8rrsi": 7777,
      "حتلّو": 7778,
      "dayr": 7779,
      "غلبي": 7780,
      "قرد": 7781,
      "قرفة": 7782,
      "m2ejjel": 7783,
      "m2chch": 7784,
      "برهني": 7785,
      "mfyy": 7786,
      "mf7o": 7787,
      "داربو": 7788,
      "kowwni": 7789,
      "ilaa": 7790,
      "تلاقي": 7791,
      "جهنم": 7792,
      "taab9": 7793,
      "سلهام": 7794,
      "مءشّ": 7795,
      "sini": 7796,
      "khllto": 7797,
      "كاينقّ": 7798,
      "zrbi": 7799,
      "ddabzi": 7800,
      "8bti": 7801,
      "serbi": 7802,
      "9ll3o": 7803,
      "قسماين": 7804,
      "متاتلي": 7805,
      "فلخر": 7806,
      "جمالي": 7807,
      "katbghi": 7808,
      "ghatbghi": 7809,
      "mtatli": 7810,
      "فينمّا": 7811,
      "ghlbi": 7812,
      "بارح": 7813,
      "باركو": 7814,
      "خارطو": 7815,
      "ghowwti": 7816,
      "قوّضو": 7817,
      "kerkeb": 7818,
      "moun": 7819,
      "المضيق": 7820,
      "شطن": 7821,
      "شطحو": 7822,
      "khsro": 7823,
      "قرّرو": 7824,
      "ڭرسيف": 7825,
      "nta9do": 7826,
      "t9aj": 7827,
      "مهزو": 7828,
      "khl3o": 7829,
      "momaya": 7830,
      "3aardi": 7831,
      "3tiraf": 7832,
      "بسطام": 7833,
      "مساهم": 7834,
      "مساحة": 7835,
      "guel": 7836,
      "عطسة": 7837,
      "عطرية": 7838,
      "حمّص": 7839,
      "دفّق": 7840,
      "9olbi": 7841,
      "قولبي": 7842,
      "ردعو": 7843,
      "قراطي": 7844,
      "قصدو": 7845,
      "مأدب": 7846,
      "mowwli": 7847,
      "قارنو": 7848,
      "ttsara": 7849,
      "lay7": 7850,
      "lay7a": 7851,
      "أساس": 7852,
      "قيامة": 7853,
      "تصويرة": 7854,
      "tt7ekk": 7855,
      "tt7emmel": 7856,
      "فضّلي": 7857,
      "تنفّسو": 7858,
      "عندنا": 7859,
      "ڭادّات": 7860,
      "frach": 7861,
      "دابا": 7862,
      "jaaza": 7863,
      "تكركبو": 7864,
      "متيقّن": 7865,
      "جرحة": 7866,
      "قطّعو": 7867,
      "was3a": 7868,
      "مراهق": 7869,
      "kkaz": 7870,
      "تشطنو": 7871,
      "تخيّلو": 7872,
      "ktasbo": 7873,
      "كتبو": 7874,
      "تستاغلّ": 7875,
      "عزّز": 7876,
      "فايق": 7877,
      "لحلاقم": 7878,
      "لڭدّام": 7879,
      "ويكاند": 7880,
      "مستاقلّ": 7881,
      "عيّف": 7882,
      "عيّان": 7883,
      "مجموعات": 7884,
      "صمّمو": 7885,
      "كرّسو": 7886,
      "ترجع": 7887,
      "ntakhbo": 7888,
      "akhir": 7889,
      "m8zo": 7890,
      "حشمة": 7891,
      "ttbe3": 7892,
      "قهوي": 7893,
      "قسّحو": 7894,
      "ماسح": 7895,
      "بزّربة": 7896,
      "حتجّو": 7897,
      "lkher": 7898,
      "zzit": 7899,
      "تايعيّف": 7900,
      "ttleb": 7901,
      "ءمّل": 7902,
      "steslmo": 7903,
      "stenzfo": 7904,
      "tbadel": 7905,
      "صطادمو": 7906,
      "قيّمو": 7907,
      "frrj": 7908,
      "خربقو": 7909,
      "قتابسو": 7910,
      "نشاط": 7911,
      "بلّاتي": 7912,
      "ختيار": 7913,
      "متحان": 7914,
      "mo9ta": 7915,
      "منتاشر": 7916,
      "ليوم": 7917,
      "مشهور": 7918,
      "mokhtarin": 7919,
      "موختارين": 7920,
      "t3len": 7921,
      "متواضع": 7922,
      "sted3iw": 7923,
      "كولشي": 7924,
      "mjmo3at": 7925,
      "شهرية": 7926,
      "مڭلّ": 7927,
      "فرحان": 7928,
      "cian": 7929,
      "ghttiw": 7930,
      "تاريخ": 7931,
      "تاريخي": 7932,
      "llekher": 7933,
      "tkhtalef": 7934,
      "حرفيّا": 7935,
      "automati": 7936,
      "شخصيّا": 7937,
      "مرحبا": 7938,
      "لعاصر": 7939,
      "وحشي": 7940,
      "تخدّم": 7941,
      "قشّرو": 7942,
      "موقتارا": 7943,
      "منحاز": 7944,
      "kebbed": 7945,
      "8jmo": 7946,
      "tbaat": 7947,
      "تبرزيط": 7948,
      "غدّار": 7949,
      "mokhafa": 7950,
      "تطبّق": 7951,
      "استثنائي": 7952,
      "ريڭبي": 7953,
      "معقّد": 7954,
      "مجلّج": 7955,
      "a9all": 7956,
      "flblasa": 7957,
      "تڭرّع": 7958,
      "مدرسة": 7959,
      "الفنيدق": 7960,
      "9chchro": 7961,
      "تشابهو": 7962,
      "إلكتروني": 7963,
      "bzzaf": 7964,
      "بيّاع": 7965,
      "حجّام": 7966,
      "دنوس": 7967,
      "شهوة": 7968,
      "شطرنج": 7969,
      "طنجية": 7970,
      "فلّاح": 7971,
      "مڭرمل": 7972,
      "المحمدية": 7973,
      "الخميسات": 7974,
      "متشرّفين": 7975,
      "تخطيط": 7976,
      "22": 7977,
      "2edda": 7978,
      "3z": 7979,
      "3da": 7980,
      "3ts": 7981,
      "3wa": 7982,
      "3chi": 7983,
      "3der": 7984,
      "3yyen": 7985,
      "3zem": 7986,
      "3ser": 7987,
      "3bbr": 7988,
      "3tabr": 7989,
      "3zza": 7990,
      "3mmr": 7991,
      "5o": 7992,
      "7j": 7993,
      "7dd": 7994,
      "7et": 7995,
      "7ellel": 7996,
      "7ser": 7997,
      "7yyed": 7998,
      "7ffez": 7999,
      "7ddr": 8000,
      "7aawer": 8001,
      "8ejjaw": 8002,
      "9ta": 8003,
      "9ro": 8004,
      "99i": 8005,
      "9bal": 8006,
      "9sed": 8007,
      "9sse7": 8008,
      "9aawem": 8009,
      "achaar": 8010,
      "bka": 8011,
      "bani": 8012,
      "byyen": 8013,
      "car": 8014,
      "dki": 8015,
      "dyor": 8016,
      "fan": 8017,
      "faaj": 8018,
      "gd": 8019,
      "gat": 8020,
      "gri": 8021,
      "iyy": 8022,
      "iri": 8023,
      "ibda": 8024,
      "jz": 8025,
      "jbi": 8026,
      "jano": 8027,
      "ksi": 8028,
      "kari": 8029,
      "kllef": 8030,
      "kerres": 8031,
      "lh": 8032,
      "l8am": 8033,
      "me": 8034,
      "mdd": 8035,
      "mja": 8036,
      "mkhta": 8037,
      "m2a": 8038,
      "msif": 8039,
      "mwgg": 8040,
      "nan": 8041,
      "n3a": 8042,
      "nma": 8043,
      "nes": 8044,
      "nji": 8045,
      "ness": 8046,
      "nina": 8047,
      "ngr": 8048,
      "nwwr": 8049,
      "oq": 8050,
      "pa": 8051,
      "rta": 8052,
      "r3a": 8053,
      "rya": 8054,
      "rsem": 8055,
      "rejje3": 8056,
      "raaf9": 8057,
      "rkel": 8058,
      "rffe8": 8059,
      "sll": 8060,
      "se8": 8061,
      "sdder": 8062,
      "sllem": 8063,
      "swwa": 8064,
      "sellef": 8065,
      "syter": 8066,
      "tbo": 8067,
      "t3awno": 8068,
      "tlle9": 8069,
      "tmmer": 8070,
      "tem2en": 8071,
      "we": 8072,
      "wssa": 8073,
      "wkklo": 8074,
      "wzno": 8075,
      "wllfo": 8076,
      "waaf9o": 8077,
      "wrrko": 8078,
      "yj": 8079,
      "yem": 8080,
      "yab": 8081,
      "yban": 8082,
      "zara": 8083,
      "أح": 8084,
      "أنّ": 8085,
      "أشار": 8086,
      "إكمّل": 8087,
      "إقدّر": 8088,
      "إعالج": 8089,
      "إقدّرو": 8090,
      "إعالجو": 8091,
      "ادي": 8092,
      "ائي": 8093,
      "بش": 8094,
      "باي": 8095,
      "برا": 8096,
      "بقا": 8097,
      "بطّ": 8098,
      "بنس": 8099,
      "بغل": 8100,
      "بلاص": 8101,
      "تقدّرو": 8102,
      "تقيا": 8103,
      "تبّتو": 8104,
      "تضاهرو": 8105,
      "تزامنو": 8106,
      "جت": 8107,
      "جاو": 8108,
      "جبل": 8109,
      "حض": 8110,
      "حار": 8111,
      "حلو": 8112,
      "حضا": 8113,
      "حديد": 8114,
      "خس": 8115,
      "خبي": 8116,
      "خيّا": 8117,
      "دخ": 8118,
      "دل": 8119,
      "دبي": 8120,
      "ديّنو": 8121,
      "رغ": 8122,
      "رتي": 8123,
      "رضا": 8124,
      "زعي": 8125,
      "سقرا": 8126,
      "شخ": 8127,
      "شع": 8128,
      "شمش": 8129,
      "شكا": 8130,
      "شبّت": 8131,
      "شكلي": 8132,
      "صدا": 8133,
      "صمك": 8134,
      "صدرو": 8135,
      "صحة": 8136,
      "صنعو": 8137,
      "صدّرو": 8138,
      "ضعا": 8139,
      "طف": 8140,
      "طمة": 8141,
      "طفاو": 8142,
      "ظة": 8143,
      "عص": 8144,
      "عنا": 8145,
      "عتي": 8146,
      "عدا": 8147,
      "عصّ": 8148,
      "عطي": 8149,
      "عطا": 8150,
      "عضي": 8151,
      "علّم": 8152,
      "عزم": 8153,
      "فم": 8154,
      "فهد": 8155,
      "قتّ": 8156,
      "قفّ": 8157,
      "قمر": 8158,
      "قدرو": 8159,
      "قيّدو": 8160,
      "قمعو": 8161,
      "كش": 8162,
      "كلب": 8163,
      "كينا": 8164,
      "كتف": 8165,
      "كلّفو": 8166,
      "كبّو": 8167,
      "كوّنو": 8168,
      "لغا": 8169,
      "لسل": 8170,
      "لهام": 8171,
      "مسّ": 8172,
      "مها": 8173,
      "مخلّص": 8174,
      "مختالف": 8175,
      "متوقّع": 8176,
      "مرّي": 8177,
      "مضوبل": 8178,
      "نه": 8179,
      "نمر": 8180,
      "نكمّل": 8181,
      "نقدّر": 8182,
      "نعالج": 8183,
      "نقدّرو": 8184,
      "نعالجو": 8185,
      "نيّة": 8186,
      "هما": 8187,
      "هدف": 8188,
      "وشم": 8189,
      "ياو": 8190,
      "يكمّل": 8191,
      "يقدّر": 8192,
      "يعالج": 8193,
      "يقدّرو": 8194,
      "يعالجو": 8195,
      "پّ": 8196,
      "پرو": 8197,
      "پيسين": 8198,
      "atr": 8199,
      "ghch": 8200,
      "ghra": 8201,
      "ghtta": 8202,
      "ghnna": 8203,
      "ghellbo": 8204,
      "chkh": 8205,
      "chjj": 8206,
      "chrr": 8207,
      "chka": 8208,
      "chff": 8209,
      "chmel": 8210,
      "chjje3": 8211,
      "chker": 8212,
      "chjjel": 8213,
      "chfer": 8214,
      "chte7": 8215,
      "ch7en": 8216,
      "ch8ed": 8217,
      "chtabe8": 8218,
      "ايد": 8219,
      "ايش": 8220,
      "اينش": 8221,
      "tag": 8222,
      "taq": 8223,
      "khz": 8224,
      "khdd": 8225,
      "khin": 8226,
      "khla": 8227,
      "khed": 8228,
      "khcha": 8229,
      "khsr": 8230,
      "khemmen": 8231,
      "katd": 8232,
      "كاتقدّرو": 8233,
      "كاتعالجو": 8234,
      "كاتعاود": 8235,
      "كاتقدّري": 8236,
      "كاتعالجي": 8237,
      "ghatd": 8238,
      "غاتقدّرو": 8239,
      "غاتعالجو": 8240,
      "غاتقدّري": 8241,
      "غاتعالجي": 8242,
      "elzem": 8243,
      "in99": 8244,
      "الز": 8245,
      "البي": 8246,
      "الصو": 8247,
      "moro": 8248,
      "momt": 8249,
      "mo2a": 8250,
      "mobar": 8251,
      "mokar": 8252,
      "mo9ay": 8253,
      "wwla": 8254,
      "wwlin": 8255,
      "كايكمّل": 8256,
      "كايقدّر": 8257,
      "كايعالج": 8258,
      "كايقدّرو": 8259,
      "كايعالجو": 8260,
      "كايفرشخ": 8261,
      "kanj": 8262,
      "كانكمّل": 8263,
      "كانقدّر": 8264,
      "كانعالج": 8265,
      "كانقدّرو": 8266,
      "كانعالجو": 8267,
      "aada": 8268,
      "aadi": 8269,
      "aabl": 8270,
      "ghayj": 8271,
      "ghanj": 8272,
      "tit": 8273,
      "غانكمّل": 8274,
      "غانقدّر": 8275,
      "غانعالج": 8276,
      "غانقدّرو": 8277,
      "غانعالجو": 8278,
      "غايكمّل": 8279,
      "غايقدّر": 8280,
      "غايعالج": 8281,
      "غايقدّرو": 8282,
      "غايعالجو": 8283,
      "توصل": 8284,
      "توضّح": 8285,
      "توتّرو": 8286,
      "تولوت": 8287,
      "مولي": 8288,
      "موصا": 8289,
      "موحاو": 8290,
      "موجة": 8291,
      "موقاي": 8292,
      "موفاو": 8293,
      "موقارّ": 8294,
      "موهوب": 8295,
      "ارب": 8296,
      "ارج": 8297,
      "naj": 8298,
      "lo9": 8299,
      "3aati": 8300,
      "3amali": 8301,
      "رّس": 8302,
      "law": 8303,
      "laba": 8304,
      "la7o": 8305,
      "laja": 8306,
      "روة": 8307,
      "روح": 8308,
      "روك": 8309,
      "رورة": 8310,
      "ttek": 8311,
      "saww": 8312,
      "ebbi": 8313,
      "lit": 8314,
      "li3a": 8315,
      "يّدا": 8316,
      "maf": 8317,
      "malat": 8318,
      "mabay": 8319,
      "rasa": 8320,
      "ra8i": 8321,
      "rafd": 8322,
      "yyeb": 8323,
      "yyda": 8324,
      "yydat": 8325,
      "مّل": 8326,
      "rifa": 8327,
      "بول": 8328,
      "dakhili": 8329,
      "ssin": 8330,
      "sseb": 8331,
      "يوق": 8332,
      "معر": 8333,
      "معدو": 8334,
      "معصو": 8335,
      "معطي": 8336,
      "معدنوس": 8337,
      "رافض": 8338,
      "رابط": 8339,
      "tsell": 8340,
      "tswira": 8341,
      "michi": 8342,
      "لاة": 8343,
      "لاس": 8344,
      "لاڭ": 8345,
      "لافاك": 8346,
      "كّلي": 8347,
      "dida": 8348,
      "dimi": 8349,
      "dimo9": 8350,
      "kkz": 8351,
      "kkem": 8352,
      "ليك": 8353,
      "ليزي": 8354,
      "ليمان": 8355,
      "llt": 8356,
      "تسو": 8357,
      "تسالي": 8358,
      "ellbi": 8359,
      "9a3do": 8360,
      "9aj7o": 8361,
      "fa7": 8362,
      "fas": 8363,
      "fazg": 8364,
      "بّين": 8365,
      "عور": 8366,
      "عون": 8367,
      "ديب": 8368,
      "wab": 8369,
      "wa3do": 8370,
      "ste": 8371,
      "9o9": 8372,
      "9of": 8373,
      "9owwa": 8374,
      "rrek": 8375,
      "mn7a": 8376,
      "mnzi": 8377,
      "mn99": 8378,
      "سّح": 8379,
      "تحقيق": 8380,
      "7ak": 8381,
      "7ach": 8382,
      "7a9i9a": 8383,
      "نويو": 8384,
      "نوضو": 8385,
      "داد": 8386,
      "تارضي": 8387,
      "تعجبو": 8388,
      "قّت": 8389,
      "eslem": 8390,
      "ماك": 8391,
      "ماكاي": 8392,
      "ماقا": 8393,
      "فور": 8394,
      "jaj": 8395,
      "jam3a": 8396,
      "jama3i": 8397,
      "مسيح": 8398,
      "etmer": 8399,
      "فاح": 8400,
      "errfin": 8401,
      "تّعجب": 8402,
      "تّكّا": 8403,
      "تّكّاو": 8404,
      "تّعجبو": 8405,
      "فرملي": 8406,
      "sirri": 8407,
      "kobbi": 8408,
      "بادي": 8409,
      "باست": 8410,
      "باقي": 8411,
      "محت": 8412,
      "ربعين": 8413,
      "فيض": 8414,
      "برهو": 8415,
      "بربوش": 8416,
      "ساس": 8417,
      "سيل": 8418,
      "سوق": 8419,
      "9if": 8420,
      "msmo": 8421,
      "msaa": 8422,
      "mtwa": 8423,
      "mtnww": 8424,
      "mtfa2": 8425,
      "طور": 8426,
      "طوار": 8427,
      "طويل": 8428,
      "chal": 8429,
      "m3do": 8430,
      "m3so": 8431,
      "m3ta9": 8432,
      "kas": 8433,
      "kafi": 8434,
      "t3ta": 8435,
      "t3ell": 8436,
      "ملحو": 8437,
      "مركو": 8438,
      "tlaa": 8439,
      "tl9a": 8440,
      "tr22": 8441,
      "zia": 8442,
      "ziz": 8443,
      "خلّاو": 8444,
      "t9dd": 8445,
      "حافة": 8446,
      "واڭ": 8447,
      "واقي": 8448,
      "واعد": 8449,
      "tdri": 8450,
      "جواب": 8451,
      "kita": 8452,
      "صول": 8453,
      "زّي": 8454,
      "على": 8455,
      "جيد": 8456,
      "mchar": 8457,
      "mchko": 8458,
      "كمّلات": 8459,
      "rbti": 8460,
      "وّلين": 8461,
      "شرق": 8462,
      "tcho": 8463,
      "tchri": 8464,
      "هامشي": 8465,
      "zazat": 8466,
      "خاصّ": 8467,
      "خاطي": 8468,
      "عدل": 8469,
      "slla": 8470,
      "تنيو": 8471,
      "كرة": 8472,
      "عرش": 8473,
      "chou": 8474,
      "smaa": 8475,
      "smma": 8476,
      "sm3i": 8477,
      "تقة": 8478,
      "كاسب": 8479,
      "drat": 8480,
      "دّدين": 8481,
      "ekka": 8482,
      "saag": 8483,
      "srin": 8484,
      "وقتاش": 8485,
      "aaf9i": 8486,
      "w9t": 8487,
      "2al": 8488,
      "2asa": 8489,
      "مقلي": 8490,
      "تابت": 8491,
      "تابعا": 8492,
      "مجمّ": 8493,
      "9ddmi": 8494,
      "مكتاب": 8495,
      "tkellfo": 8496,
      "زلزال": 8497,
      "3ati": 8498,
      "شارع": 8499,
      "كمّلت": 8500,
      "كمّلنا": 8501,
      "كمّلتي": 8502,
      "قدّرت": 8503,
      "قدّرات": 8504,
      "قدّرتو": 8505,
      "قدّرنا": 8506,
      "قدّرتي": 8507,
      "mkher": 8508,
      "mkhso": 8509,
      "طربوش": 8510,
      "عنيو": 8511,
      "نخدّ": 8512,
      "فقط": 8513,
      "charja": 8514,
      "ssad": 8515,
      "خدّام": 8516,
      "ماركا": 8517,
      "نجاو": 8518,
      "عالجت": 8519,
      "عالجات": 8520,
      "عالجتو": 8521,
      "عالجنا": 8522,
      "عالجتي": 8523,
      "t2tir": 8524,
      "tsowwri": 8525,
      "7atan": 8526,
      "تنازلو": 8527,
      "khono": 8528,
      "n99s": 8529,
      "8im": 8530,
      "كانّش": 8531,
      "غانّش": 8532,
      "dbti": 8533,
      "خرشوف": 8534,
      "مضرو": 8535,
      "wssiw": 8536,
      "تفاهمو": 8537,
      "khssro": 8538,
      "daawa": 8539,
      "قليو": 8540,
      "قلعة": 8541,
      "حربي": 8542,
      "حركة": 8543,
      "زربية": 8544,
      "khati": 8545,
      "dayra": 8546,
      "3tardo": 8547,
      "تلاحو": 8548,
      "تلاشاو": 8549,
      "سلتو": 8550,
      "ta7t": 8551,
      "sinaa": 8552,
      "تقاد": 8553,
      "تقاعدو": 8554,
      "تقاجحو": 8555,
      "داير": 8556,
      "دايرا": 8557,
      "تّاهم": 8558,
      "تّافق": 8559,
      "تّاهمو": 8560,
      "تّافقو": 8561,
      "rreri": 8562,
      "النسب": 8563,
      "9aad": 8564,
      "سبّو": 8565,
      "سبّبو": 8566,
      "waa9i3i": 8567,
      "مغيّ": 8568,
      "مغنّي": 8569,
      "بطولة": 8570,
      "قرّي": 8571,
      "قرّيو": 8572,
      "لعّ": 8573,
      "لفوق": 8574,
      "حسد": 8575,
      "تطوّعو": 8576,
      "مالات": 8577,
      "ra2i3": 8578,
      "ra2is": 8579,
      "jrri": 8580,
      "علاش": 8581,
      "3tana": 8582,
      "صحّة": 8583,
      "guer": 8584,
      "jerri": 8585,
      "عطش": 8586,
      "ssesi": 8587,
      "تقلّقو": 8588,
      "مؤقّت": 8589,
      "التاو": 8590,
      "3ando": 8591,
      "جغرا": 8592,
      "msta9": 8593,
      "ديالو": 8594,
      "كميو": 8595,
      "ملاقيا": 8596,
      "تخلّاو": 8597,
      "lays": 8598,
      "تصورو": 8599,
      "7tell": 8600,
      "تقدّاو": 8601,
      "تقدّري": 8602,
      "enzef": 8603,
      "عندكوم": 8604,
      "bouch": 8605,
      "2aada": 8606,
      "دابز": 8607,
      "e8lek": 8608,
      "t2e9lm": 8609,
      "zayd": 8610,
      "خمسين": 8611,
      "خمسطاش": 8612,
      "تمرين": 8613,
      "e2nef": 8614,
      "عانات": 8615,
      "تطلّبو": 8616,
      "tyye7": 8617,
      "قليت": 8618,
      "waj8o": 8619,
      "mechchaw": 8620,
      "مراكش": 8621,
      "ktasb": 8622,
      "قابلو": 8623,
      "ڭدڭد": 8624,
      "chaafa": 8625,
      "t3amel": 8626,
      "doubl": 8627,
      "مفروق": 8628,
      "akhla9i": 8629,
      "chtamel": 8630,
      "قهوا": 8631,
      "imprima": 8632,
      "ktbo": 8633,
      "w99fo": 8634,
      "zaamno": 8635,
      "وزّعو": 8636,
      "ديور": 8637,
      "صبغو": 8638,
      "تدفّقو": 8639,
      "n8ej": 8640,
      "trassa": 8641,
      "wdd7o": 8642,
      "waaj8o": 8643,
      "خضرة": 8644,
      "كتبة": 8645,
      "m9bol": 8646,
      "tlle3": 8647,
      "خايب": 8648,
      "خايف": 8649,
      "معاون": 8650,
      "partaja": 8651,
      "wttdo": 8652,
      "9elles": 8653,
      "idaari": 8654,
      "مقلّق": 8655,
      "3odw": 8656,
      "مشروع": 8657,
      "jemmdo": 8658,
      "jessdo": 8659,
      "wzz3o": 8660,
      "w77do": 8661,
      "تغلّبو": 8662,
      "خشيو": 8663,
      "وطّدو": 8664,
      "موضوعي": 8665,
      "tkebbdo": 8666,
      "tfrrjo": 8667,
      "تفاوضو": 8668,
      "الصلاة": 8669,
      "monasib": 8670,
      "نفّس": 8671,
      "عادل": 8672,
      "ze3lelo": 8673,
      "أدان": 8674,
      "mochkil": 8675,
      "تءمّل": 8676,
      "تءمّلو": 8677,
      "baa3": 8678,
      "s7i7": 8679,
      "حقق": 8680,
      "dyawl": 8681,
      "7chman": 8682,
      "قانون": 8683,
      "كحبة": 8684,
      "مقدّرين": 8685,
      "كوميديا": 8686,
      "jtima3i": 8687,
      "صالحو": 8688,
      "مقدّرا": 8689,
      "ڭليز": 8690,
      "موكارّ": 8691,
      "تطوير": 8692,
      "غريبة": 8693,
      "khariji": 8694,
      "asaasi": 8695,
      "حقيقة": 8696,
      "خيّل": 8697,
      "مرحلة": 8698,
      "مجهول": 8699,
      "إيمان": 8700,
      "قديم": 8701,
      "moda3a": 8702,
      "تعالجو": 8703,
      "تعالجي": 8704,
      "تّاوا": 8705,
      "تّاواو": 8706,
      "تنافسو": 8707,
      "asasi": 8708,
      "بضّرورة": 8709,
      "معڭاز": 8710,
      "فرماسيان": 8711,
      "مشطون": 8712,
      "تهجّاو": 8713,
      "mo3tabar": 8714,
      "sytr": 8715,
      "ماباينش": 8716,
      "رئيس": 8717,
      "مڭابلا": 8718,
      "زاوية": 8719,
      "متنوّع": 8720,
      "بطاطا": 8721,
      "ffos": 8722,
      "se77e7": 8723,
      "جديدة": 8724,
      "مباشر": 8725,
      "وقوف": 8726,
      "تكبّدو": 8727,
      "تفرّجو": 8728,
      "gddami": 8729,
      "لخميس": 8730,
      "mota7rri": 8731,
      "fasila": 8732,
      "sted3a": 8733,
      "بنسليمان": 8734,
      "حضاش": 8735,
      "خيّاط": 8736,
      "شعرية": 8737,
      "عضيم": 8738,
      "مرّيخ": 8739,
      "الصويرة": 8740,
      "برهوش": 8741,
      "2emmlo": 8742,
      "2e88": 8743,
      "2ejjli": 8744,
      "33": 8745,
      "3lo": 8746,
      "3cha": 8747,
      "3ana": 8748,
      "3eyy": 8749,
      "3bro": 8750,
      "3ddlo": 8751,
      "3aaljo": 8752,
      "5tal": 8753,
      "7err": 8754,
      "77i": 8755,
      "7aaf": 8756,
      "7wwlo": 8757,
      "7sbo": 8758,
      "7tto": 8759,
      "7ebb": 8760,
      "7bso": 8761,
      "7jzo": 8762,
      "7araka": 8763,
      "8d": 8764,
      "8ya": 8765,
      "8dm": 8766,
      "9di": 8767,
      "9tab": 8768,
      "9ari": 8769,
      "9wwi": 8770,
      "9smo": 8771,
      "9raw": 8772,
      "9sam": 8773,
      "9tt3": 8774,
      "a2": 8775,
      "az": 8776,
      "asas": 8777,
      "aklo": 8778,
      "bgh": 8779,
      "bya": 8780,
      "b7i": 8781,
      "bnt": 8782,
      "bzz": 8783,
      "bnti": 8784,
      "bhal": 8785,
      "cine": 8786,
      "den": 8787,
      "dha": 8788,
      "d9i9": 8789,
      "echa": 8790,
      "f3o": 8791,
      "fddli": 8792,
      "fe8mi": 8793,
      "gan": 8794,
      "gin": 8795,
      "gla": 8796,
      "gedd": 8797,
      "gaabel": 8798,
      "hat": 8799,
      "hwi": 8800,
      "hdar": 8801,
      "hid": 8802,
      "ija": 8803,
      "iji": 8804,
      "j3": 8805,
      "jan": 8806,
      "j3o": 8807,
      "jgho": 8808,
      "jma3": 8809,
      "ky": 8810,
      "kwa": 8811,
      "kni": 8812,
      "kyin": 8813,
      "kemmlo": 8814,
      "ktach": 8815,
      "le": 8816,
      "lef": 8817,
      "lya": 8818,
      "l9ay": 8819,
      "mbo": 8820,
      "me9": 8821,
      "mka": 8822,
      "mej": 8823,
      "myin": 8824,
      "mjaw": 8825,
      "maal": 8826,
      "mftar": 8827,
      "mtbb": 8828,
      "mtowwer": 8829,
      "mlia": 8830,
      "m7owwel": 8831,
      "m9olb": 8832,
      "mdab": 8833,
      "nsi": 8834,
      "nfi": 8835,
      "nffdo": 8836,
      "po": 8837,
      "pro": 8838,
      "pis": 8839,
      "plom": 8840,
      "qra": 8841,
      "rba": 8842,
      "res": 8843,
      "rkl": 8844,
      "rbi3": 8845,
      "rba7": 8846,
      "s3": 8847,
      "stt": 8848,
      "sjj": 8849,
      "se7": 8850,
      "sm3": 8851,
      "swi": 8852,
      "sejj": 8853,
      "sma3": 8854,
      "syya": 8855,
      "sda3": 8856,
      "sma7": 8857,
      "skkar": 8858,
      "tfr": 8859,
      "tzo": 8860,
      "tmch": 8861,
      "tns": 8862,
      "tek": 8863,
      "tech": 8864,
      "tmar": 8865,
      "tekh": 8866,
      "tqa": 8867,
      "tfrg3": 8868,
      "tdowwer": 8869,
      "tgabl": 8870,
      "tjaweb": 8871,
      "tncher": 8872,
      "tnche2": 8873,
      "tzid": 8874,
      "tja8l": 8875,
      "wina": 8876,
      "w3d": 8877,
      "wlla": 8878,
      "wlliw": 8879,
      "ym": 8880,
      "yer": 8881,
      "yss": 8882,
      "yir": 8883,
      "yiz": 8884,
      "yesser": 8885,
      "zet": 8886,
      "zlin": 8887,
      "ءجّلي": 8888,
      "ءقلمي": 8889,
      "آمن": 8890,
      "أنّا": 8891,
      "أهلا": 8892,
      "أقارّ": 8893,
      "أڤو": 8894,
      "إا": 8895,
      "إنس": 8896,
      "إطا": 8897,
      "إطوّر": 8898,
      "إعاون": 8899,
      "إجرّب": 8900,
      "إعلن": 8901,
      "إحوّل": 8902,
      "إطوّرو": 8903,
      "إحسب": 8904,
      "إسدّ": 8905,
      "اع": 8906,
      "اكلو": 8907,
      "بب": 8908,
      "بيو": 8909,
      "بقي": 8910,
      "باني": 8911,
      "بداي": 8912,
      "برّرو": 8913,
      "بكري": 8914,
      "برّا": 8915,
      "بلاصا": 8916,
      "بصلة": 8917,
      "بڭرة": 8918,
      "بالنسب": 8919,
      "تدو": 8920,
      "تهزّ": 8921,
      "تڭابل": 8922,
      "تدافع": 8923,
      "تخلّط": 8924,
      "تختابر": 8925,
      "تغادر": 8926,
      "تقاطع": 8927,
      "تطيّب": 8928,
      "تغلب": 8929,
      "تمنع": 8930,
      "تفرڭع": 8931,
      "تكره": 8932,
      "تراجع": 8933,
      "تغرق": 8934,
      "تغوّت": 8935,
      "تصلح": 8936,
      "تنشء": 8937,
      "تانو": 8938,
      "تزيد": 8939,
      "تئب": 8940,
      "جمل": 8941,
      "جارف": 8942,
      "حاي": 8943,
      "حسا": 8944,
      "حصّ": 8945,
      "حزن": 8946,
      "حسبو": 8947,
      "حوّلي": 8948,
      "حجر": 8949,
      "حجزو": 8950,
      "حرّكي": 8951,
      "حلاقم": 8952,
      "حجرة": 8953,
      "خم": 8954,
      "خرو": 8955,
      "خني": 8956,
      "خرّا": 8957,
      "خزّي": 8958,
      "دفا": 8959,
      "دقي": 8960,
      "دلف": 8961,
      "درّبي": 8962,
      "رت": 8963,
      "رط": 8964,
      "رسّ": 8965,
      "رمان": 8966,
      "رتفا": 8967,
      "رجّعو": 8968,
      "رماد": 8969,
      "زبل": 8970,
      "زوّلو": 8971,
      "زيّنو": 8972,
      "زرّبو": 8973,
      "زرّي": 8974,
      "زيّرو": 8975,
      "زڭلو": 8976,
      "سف": 8977,
      "سى": 8978,
      "ساي": 8979,
      "سنا": 8980,
      "سمّ": 8981,
      "سيو": 8982,
      "سدّي": 8983,
      "سالي": 8984,
      "سطات": 8985,
      "سلام": 8986,
      "سدّيتي": 8987,
      "سدّيتو": 8988,
      "سطّاش": 8989,
      "شلّ": 8990,
      "شتو": 8991,
      "شلا": 8992,
      "شقّ": 8993,
      "شيا": 8994,
      "شخر": 8995,
      "شجّعو": 8996,
      "شجر": 8997,
      "شبّا": 8998,
      "شهية": 8999,
      "شعبي": 9000,
      "شجرة": 9001,
      "شمعة": 9002,
      "شمسي": 9003,
      "صض": 9004,
      "صن": 9005,
      "صان": 9006,
      "صفح": 9007,
      "صطة": 9008,
      "صلّي": 9009,
      "صيّا": 9010,
      "صاري": 9011,
      "صلّيو": 9012,
      "صرّفي": 9013,
      "صمعة": 9014,
      "ضل": 9015,
      "طح": 9016,
      "طالي": 9017,
      "طلاب": 9018,
      "عك": 9019,
      "عرّ": 9020,
      "عرا": 9021,
      "عضو": 9022,
      "عاني": 9023,
      "عباد": 9024,
      "عدّلو": 9025,
      "عيّنو": 9026,
      "عتارفو": 9027,
      "عطاش": 9028,
      "عكسي": 9029,
      "غدا": 9030,
      "غني": 9031,
      "غمة": 9032,
      "فان": 9033,
      "فتي": 9034,
      "فعا": 9035,
      "فتر": 9036,
      "فلف": 9037,
      "فارض": 9038,
      "فنّي": 9039,
      "قن": 9040,
      "قدو": 9041,
      "قنت": 9042,
      "قصر": 9043,
      "قنيو": 9044,
      "كالم": 9045,
      "كحل": 9046,
      "كالما": 9047,
      "لما": 9048,
      "لجو": 9049,
      "لعر": 9050,
      "لهي": 9051,
      "لغل": 9052,
      "لقاي": 9053,
      "لقلي": 9054,
      "لخير": 9055,
      "لسان": 9056,
      "لخريف": 9057,
      "مبو": 9058,
      "مدي": 9059,
      "متع": 9060,
      "مهر": 9061,
      "مزع": 9062,
      "مختار": 9063,
      "مغلّ": 9064,
      "مدافع": 9065,
      "مخلّط": 9066,
      "مفتارض": 9067,
      "مدير": 9068,
      "مقولب": 9069,
      "موّلي": 9070,
      "متوتّر": 9071,
      "نبي": 9072,
      "نسي": 9073,
      "نتاق": 9074,
      "نطوّر": 9075,
      "نعاون": 9076,
      "نجرّب": 9077,
      "نعلن": 9078,
      "نطوّرو": 9079,
      "نفل": 9080,
      "نفّدو": 9081,
      "نتاقم": 9082,
      "نڭليز": 9083,
      "نغمة": 9084,
      "هط": 9085,
      "هير": 9086,
      "هاوي": 9087,
      "وب": 9088,
      "وع": 9089,
      "وار": 9090,
      "وسو": 9091,
      "وجه": 9092,
      "ولاد": 9093,
      "وطيل": 9094,
      "يج": 9095,
      "يدّ": 9096,
      "يطوّر": 9097,
      "يعاون": 9098,
      "يجرّب": 9099,
      "يعلن": 9100,
      "يحوّل": 9101,
      "يطوّرو": 9102,
      "يحسب": 9103,
      "يخسّ": 9104,
      "يمپريميو": 9105,
      "ّفي": 9106,
      "پر": 9107,
      "پلوم": 9108,
      "ڭاو": 9109,
      "ڭمل": 9110,
      "ڭزّ": 9111,
      "ght": 9112,
      "ghdda": 9113,
      "ghyat": 9114,
      "ghlab": 9115,
      "ans": 9116,
      "cht7": 9117,
      "chet": 9118,
      "cheddo": 9119,
      "chkklo": 9120,
      "chwia": 9121,
      "ta3a": 9122,
      "taro": 9123,
      "tasa": 9124,
      "tasar": 9125,
      "khsa": 9126,
      "khdda": 9127,
      "khddmo": 9128,
      "khzn": 9129,
      "khddam": 9130,
      "katban": 9131,
      "katjrr": 9132,
      "kat3awn": 9133,
      "kat3awen": 9134,
      "katjerr": 9135,
      "katfrg3": 9136,
      "katdowwer": 9137,
      "katgabl": 9138,
      "kattwe99e3": 9139,
      "katw9ef": 9140,
      "katkhtalef": 9141,
      "katjm3": 9142,
      "katkhdem": 9143,
      "kat7owwel": 9144,
      "katjaweb": 9145,
      "katftard": 9146,
      "katncher": 9147,
      "katmne3": 9148,
      "katnche2": 9149,
      "kat2etter": 9150,
      "katsle7": 9151,
      "katntej": 9152,
      "katdfe3": 9153,
      "katd3em": 9154,
      "katfkker": 9155,
      "katf8em": 9156,
      "kat9dder": 9157,
      "katzid": 9158,
      "katchof": 9159,
      "كاتقلّ": 9160,
      "كاتهزّ": 9161,
      "كاتطوّرو": 9162,
      "كاتقدّم": 9163,
      "كاترجع": 9164,
      "كاتڭابل": 9165,
      "كاتدافع": 9166,
      "كاتخلّط": 9167,
      "كاتختابر": 9168,
      "كاتغادر": 9169,
      "كاتقاطع": 9170,
      "كاتستاغلّ": 9171,
      "كاتطيّب": 9172,
      "كاتغلب": 9173,
      "كاتستنتج": 9174,
      "كاتهرب": 9175,
      "كاتمنع": 9176,
      "كاتفرڭع": 9177,
      "كاتفتارض": 9178,
      "كاتكره": 9179,
      "كاتراجع": 9180,
      "كاتغرق": 9181,
      "كاتدعم": 9182,
      "كاتغوّت": 9183,
      "كاتدوّر": 9184,
      "كاتضيّع": 9185,
      "كاتصلح": 9186,
      "كاتنشء": 9187,
      "كاتشكّل": 9188,
      "كاتوڭف": 9189,
      "كاتوضّح": 9190,
      "كاتهبط": 9191,
      "كاتنخارط": 9192,
      "كاتضبط": 9193,
      "كاترتابط": 9194,
      "كاتشوف": 9195,
      "كاتزيد": 9196,
      "كاتطوّري": 9197,
      "ghatban": 9198,
      "ghatjrr": 9199,
      "ghat3awn": 9200,
      "ghat3awen": 9201,
      "ghatjerr": 9202,
      "ghatfrg3": 9203,
      "ghatdowwer": 9204,
      "ghatgabl": 9205,
      "ghattwe99e3": 9206,
      "ghatw9ef": 9207,
      "ghatkhtalef": 9208,
      "ghatjm3": 9209,
      "ghatkhdem": 9210,
      "ghat7owwel": 9211,
      "ghatjaweb": 9212,
      "ghatftard": 9213,
      "ghatncher": 9214,
      "ghatmne3": 9215,
      "ghatnche2": 9216,
      "ghat2etter": 9217,
      "ghatsle7": 9218,
      "ghatntej": 9219,
      "ghatdfe3": 9220,
      "ghatd3em": 9221,
      "ghatfkker": 9222,
      "ghatf8em": 9223,
      "ghat9dder": 9224,
      "ghatzid": 9225,
      "ghatchof": 9226,
      "غاتقلّ": 9227,
      "غاتهزّ": 9228,
      "غاتطوّرو": 9229,
      "غاتقدّم": 9230,
      "غاترجع": 9231,
      "غاتڭابل": 9232,
      "غاتدافع": 9233,
      "غاتخلّط": 9234,
      "غاتختابر": 9235,
      "غاتغادر": 9236,
      "غاتقاطع": 9237,
      "غاتستاغلّ": 9238,
      "غاتطيّب": 9239,
      "غاتغلب": 9240,
      "غاتستنتج": 9241,
      "غاتهرب": 9242,
      "غاتمنع": 9243,
      "غاتعاود": 9244,
      "غاتفرڭع": 9245,
      "غاتفتارض": 9246,
      "غاتكره": 9247,
      "غاتراجع": 9248,
      "غاتغرق": 9249,
      "غاتدعم": 9250,
      "غاتغوّت": 9251,
      "غاتدوّر": 9252,
      "غاتضيّع": 9253,
      "غاتصلح": 9254,
      "غاتنشء": 9255,
      "غاتشكّل": 9256,
      "غاتوڭف": 9257,
      "غاتوضّح": 9258,
      "غاتهبط": 9259,
      "غاتنخارط": 9260,
      "غاتضبط": 9261,
      "غاترتابط": 9262,
      "غاتشوف": 9263,
      "غاتزيد": 9264,
      "غاتطوّري": 9265,
      "تاع": 9266,
      "تاما": 9267,
      "erra": 9268,
      "اللو": 9269,
      "الحو": 9270,
      "الور": 9271,
      "السمع": 9272,
      "التجوّج": 9273,
      "التحكّم": 9274,
      "الواحد": 9275,
      "arfi": 9276,
      "moli": 9277,
      "mocha": 9278,
      "molat": 9279,
      "mowat": 9280,
      "mo8aji": 9281,
      "لّقا": 9282,
      "وّضي": 9283,
      "wwti": 9284,
      "wwe3": 9285,
      "tola": 9286,
      "كايطوّر": 9287,
      "كايعاون": 9288,
      "كايجرّب": 9289,
      "كايعلن": 9290,
      "كايحوّل": 9291,
      "كايطوّرو": 9292,
      "كايحسب": 9293,
      "كايسدّ": 9294,
      "كايفرّ": 9295,
      "kanbghi": 9296,
      "كانطوّر": 9297,
      "كانعاون": 9298,
      "كانجرّب": 9299,
      "كانعلن": 9300,
      "كانحوّل": 9301,
      "كانطوّرو": 9302,
      "كانحسب": 9303,
      "كانسدّ": 9304,
      "aami": 9305,
      "aamn": 9306,
      "tia": 9307,
      "غانطوّر": 9308,
      "غانعاون": 9309,
      "غانجرّب": 9310,
      "غانعلن": 9311,
      "غانحوّل": 9312,
      "غانطوّرو": 9313,
      "غانحسب": 9314,
      "غانسدّ": 9315,
      "غايطوّر": 9316,
      "غايعاون": 9317,
      "غايجرّب": 9318,
      "غايعلن": 9319,
      "غايحوّل": 9320,
      "غايطوّرو": 9321,
      "غايحسب": 9322,
      "غايسدّ": 9323,
      "تون": 9324,
      "توسي": 9325,
      "توماتي": 9326,
      "توڭف": 9327,
      "موص": 9328,
      "مومي": 9329,
      "موقا": 9330,
      "موسا": 9331,
      "موطوّ": 9332,
      "موحا": 9333,
      "موضّ": 9334,
      "موعاو": 9335,
      "موجا": 9336,
      "موطار": 9337,
      "موخاط": 9338,
      "موتّا": 9339,
      "موخطّ": 9340,
      "موفضّ": 9341,
      "موقراطي": 9342,
      "موزعي": 9343,
      "ارفي": 9344,
      "اركي": 9345,
      "ارضي": 9346,
      "nawa": 9347,
      "nazlo": 9348,
      "اوري": 9349,
      "dob": 9350,
      "dori": 9351,
      "lol": 9352,
      "3ag": 9353,
      "3abr": 9354,
      "3azl": 9355,
      "لوك": 9356,
      "لوضو": 9357,
      "roj": 9358,
      "ro2asa": 9359,
      "lachaw": 9360,
      "la9ay": 9361,
      "روأسا": 9362,
      "روماتي": 9363,
      "ناشف": 9364,
      "tt9": 9365,
      "ttso": 9366,
      "ttani": 9367,
      "tt3j": 9368,
      "sadd": 9369,
      "sawi": 9370,
      "saha": 9371,
      "sabat": 9372,
      "salmo": 9373,
      "sa8lo": 9374,
      "تيقو": 9375,
      "تيريو": 9376,
      "تيران": 9377,
      "تيقليت": 9378,
      "يّام": 9379,
      "mak": 9380,
      "ra2": 9381,
      "ra7a": 9382,
      "enni": 9383,
      "yyrat": 9384,
      "yynat": 9385,
      "bo7": 9386,
      "boli": 9387,
      "rid": 9388,
      "rij": 9389,
      "rikh": 9390,
      "e3tach": 9391,
      "ريسة": 9392,
      "eddine": 9393,
      "بوح": 9394,
      "بوبري": 9395,
      "بوسكّ": 9396,
      "بولحية": 9397,
      "بوصطة": 9398,
      "daq": 9399,
      "daz": 9400,
      "ssla": 9401,
      "يوجّ": 9402,
      "يوميا": 9403,
      "معتامد": 9404,
      "معجع": 9405,
      "معنى": 9406,
      "tsll": 9407,
      "tsle7": 9408,
      "tsellef": 9409,
      "tsell9i": 9410,
      "mit": 9411,
      "misat": 9412,
      "لاما": 9413,
      "لاحو": 9414,
      "لاحي": 9415,
      "لاقاي": 9416,
      "dio": 9417,
      "diat": 9418,
      "diini": 9419,
      "diimi": 9420,
      "kker": 9421,
      "ليمن": 9422,
      "ليسر": 9423,
      "llto": 9424,
      "llsi": 9425,
      "llghi": 9426,
      "تستو": 9427,
      "تسمح": 9428,
      "تسكن": 9429,
      "تسبيق": 9430,
      "تسعطاش": 9431,
      "ellto": 9432,
      "ellfi": 9433,
      "ellgho": 9434,
      "9ab": 9435,
      "9a3ida": 9436,
      "منضر": 9437,
      "منبعد": 9438,
      "منهاجي": 9439,
      "منظر": 9440,
      "fa2i": 9441,
      "عومان": 9442,
      "دياولو": 9443,
      "ديموقراطي": 9444,
      "bib": 9445,
      "bida": 9446,
      "biyin": 9447,
      "bi9an": 9448,
      "ستقرار": 9449,
      "ابقي": 9450,
      "wa7": 9451,
      "wazi": 9452,
      "wa7d": 9453,
      "stentj": 9454,
      "effi": 9455,
      "t7tt": 9456,
      "t7ell": 9457,
      "t7sb": 9458,
      "t7seb": 9459,
      "t7wwel": 9460,
      "t799e9": 9461,
      "t7e99e9": 9462,
      "t7bes": 9463,
      "t7jez": 9464,
      "t7kem": 9465,
      "ميري": 9466,
      "ميلي": 9467,
      "ميزا": 9468,
      "rrs": 9469,
      "rrat": 9470,
      "rrbi3": 9471,
      "mnza": 9472,
      "mnfaj": 9473,
      "mnta9": 9474,
      "mnnay": 9475,
      "جّعات": 9476,
      "تحسّ": 9477,
      "تحوّلو": 9478,
      "تحجز": 9479,
      "تحبس": 9480,
      "تحوّلي": 9481,
      "تحتافض": 9482,
      "تحرّكي": 9483,
      "قودي": 9484,
      "tardi": 9485,
      "tar7i": 9486,
      "7ama": 9487,
      "7amla": 9488,
      "نوجّ": 9489,
      "تارمو": 9490,
      "تارسو": 9491,
      "تارحي": 9492,
      "تعبر": 9493,
      "تعاني": 9494,
      "تعيّن": 9495,
      "تعدّل": 9496,
      "تعبّر": 9497,
      "تعارض": 9498,
      "تعتارف": 9499,
      "تعجبي": 9500,
      "essa": 9501,
      "ماڭ": 9502,
      "ماضي": 9503,
      "مادّا": 9504,
      "7owwl": 9505,
      "بيج": 9506,
      "fow": 9507,
      "ja3a": 9508,
      "3ila": 9509,
      "مسبو": 9510,
      "مسلم": 9511,
      "مستاق": 9512,
      "مسارا": 9513,
      "مسالي": 9514,
      "مسخّ": 9515,
      "مسكة": 9516,
      "مسلسل": 9517,
      "iwjj": 9518,
      "قاع": 9519,
      "قاسم": 9520,
      "قاضي": 9521,
      "فائ": 9522,
      "فاعلي": 9523,
      "فاطمة": 9524,
      "تّبو": 9525,
      "فرضي": 9526,
      "فّدي": 9527,
      "si3": 9528,
      "sim": 9529,
      "fi3": 9530,
      "fiyin": 9531,
      "تجي": 9532,
      "تجوّجي": 9533,
      "محدّ": 9534,
      "محكّ": 9535,
      "محمّر": 9536,
      "محتافض": 9537,
      "محدّدا": 9538,
      "tban": 9539,
      "tbni": 9540,
      "tberrer": 9541,
      "فيل": 9542,
      "nisb": 9543,
      "ni9ach": 9544,
      "nos": 9545,
      "nour": 9546,
      "mmch": 9547,
      "mmar": 9548,
      "mmtat": 9549,
      "برقوق": 9550,
      "برشيد": 9551,
      "سامي": 9552,
      "ساحة": 9553,
      "سائل": 9554,
      "سيين": 9555,
      "سيرّ": 9556,
      "سول": 9557,
      "كاتّحكّ": 9558,
      "كاتّضمّن": 9559,
      "كاتّحكّم": 9560,
      "9ima": 9561,
      "mselle9": 9562,
      "msmo7": 9563,
      "msdod": 9564,
      "mstow3": 9565,
      "غاتّحكّ": 9566,
      "غاتّضمّن": 9567,
      "غاتّحكّم": 9568,
      "كورة": 9569,
      "كوالا": 9570,
      "mtra": 9571,
      "mtwad": 9572,
      "mtnas": 9573,
      "حوت": 9574,
      "حودود": 9575,
      "عاص": 9576,
      "عاقة": 9577,
      "عاڭر": 9578,
      "عافاك": 9579,
      "طوال": 9580,
      "طوكيو": 9581,
      "n99a": 9582,
      "طوّقي": 9583,
      "joj": 9584,
      "chakk": 9585,
      "m3y": 9586,
      "مشط": 9587,
      "مشري": 9588,
      "مشكّ": 9589,
      "مشوي": 9590,
      "مشماش": 9591,
      "مشغول": 9592,
      "twan": 9593,
      "نّب": 9594,
      "kama": 9595,
      "kamil": 9596,
      "هود": 9597,
      "t3ber": 9598,
      "t3ddel": 9599,
      "t3aalj": 9600,
      "t3tarf": 9601,
      "t3jeb": 9602,
      "3awdi": 9603,
      "متءتّ": 9604,
      "متناس": 9605,
      "ffay": 9606,
      "ملبو": 9607,
      "ملغي": 9608,
      "مرڭ": 9609,
      "مرار": 9610,
      "مرتاح": 9611,
      "tabti": 9612,
      "tab3a": 9613,
      "tl9i": 9614,
      "tlga": 9615,
      "trina": 9616,
      "trfed": 9617,
      "trkkez": 9618,
      "traaj3": 9619,
      "خلّيك": 9620,
      "نشدّ": 9621,
      "t9ra": 9622,
      "t9sem": 9623,
      "t9dder": 9624,
      "m7taf": 9625,
      "حاسب": 9626,
      "حاجز": 9627,
      "سباب": 9628,
      "سبعين": 9629,
      "سبليو": 9630,
      "واعي": 9631,
      "واڭف": 9632,
      "ji3": 9633,
      "jika": 9634,
      "جوم": 9635,
      "ترجّع": 9636,
      "تبان": 9637,
      "تبعي": 9638,
      "تبني": 9639,
      "تبرّر": 9640,
      "تبلّغ": 9641,
      "tkhay": 9642,
      "tkhddem": 9643,
      "tkhdem": 9644,
      "tkhlles": 9645,
      "كيت": 9646,
      "كيد": 9647,
      "كير": 9648,
      "كيين": 9649,
      "kid": 9650,
      "kit": 9651,
      "دمين": 9652,
      "جرّي": 9653,
      "صوڭي": 9654,
      "علنت": 9655,
      "جيبي": 9656,
      "جيكا": 9657,
      "hama": 9658,
      "hass": 9659,
      "khawi": 9660,
      "khaari": 9661,
      "mchri": 9662,
      "mchkk": 9663,
      "mchgho": 9664,
      "99ef": 9665,
      "كمّون": 9666,
      "rb3": 9667,
      "rb7i": 9668,
      "نقطة": 9669,
      "التضمّن": 9670,
      "التروة": 9671,
      "درس": 9672,
      "nsr": 9673,
      "nskh": 9674,
      "nsaa": 9675,
      "يرتا": 9676,
      "شرقي": 9677,
      "tchedd": 9678,
      "tchkkel": 9679,
      "tchof": 9680,
      "ttaar": 9681,
      "ttasli": 9682,
      "هاإ": 9683,
      "هاهو": 9684,
      "هازّ": 9685,
      "هاهيا": 9686,
      "ضّي": 9687,
      "ضّمي": 9688,
      "عاودي": 9689,
      "عاونت": 9690,
      "tjerr": 9691,
      "tjm3": 9692,
      "تشدّد": 9693,
      "تشجّع": 9694,
      "تشكّل": 9695,
      "تشوف": 9696,
      "slat": 9697,
      "slin": 9698,
      "sl3a": 9699,
      "تنفّد": 9700,
      "تنضّم": 9701,
      "تنخارط": 9702,
      "كرش": 9703,
      "كرهي": 9704,
      "mdbo": 9705,
      "عرق": 9706,
      "عرفي": 9707,
      "مدخ": 9708,
      "مدفّ": 9709,
      "صلع": 9710,
      "lbsi": 9711,
      "جاح": 9712,
      "2i3": 9713,
      "تقرا": 9714,
      "تقنع": 9715,
      "تقتل": 9716,
      "تقدير": 9717,
      "ghadr": 9718,
      "كاشف": 9719,
      "kat7tt": 9720,
      "kat7ell": 9721,
      "kat7sb": 9722,
      "kat7seb": 9723,
      "kat7wwel": 9724,
      "kat799e9": 9725,
      "kat7e99e9": 9726,
      "kat7bes": 9727,
      "kat7jez": 9728,
      "kat7kem": 9729,
      "ghat7tt": 9730,
      "ghat7ell": 9731,
      "ghat7sb": 9732,
      "ghat7seb": 9733,
      "ghat7wwel": 9734,
      "ghat799e9": 9735,
      "ghat7e99e9": 9736,
      "ghat7bes": 9737,
      "ghat7jez": 9738,
      "ghat7kem": 9739,
      "eddedin": 9740,
      "tnay": 9741,
      "tnffed": 9742,
      "tnayn": 9743,
      "tntej": 9744,
      "كاتحسّ": 9745,
      "كاتحوّلو": 9746,
      "كاتحجز": 9747,
      "كاتحبس": 9748,
      "كاتحوّلي": 9749,
      "كاتحتافض": 9750,
      "mrar": 9751,
      "mrko": 9752,
      "غامض": 9753,
      "نعجة": 9754,
      "غاتحسّ": 9755,
      "غاتحوّلو": 9756,
      "غاتحجز": 9757,
      "غاتحبس": 9758,
      "غاتحوّلي": 9759,
      "غاتحتافض": 9760,
      "شوي": 9761,
      "شوارب": 9762,
      "8a2i": 9763,
      "ntfa": 9764,
      "sb3": 9765,
      "تخزين": 9766,
      "طيلة": 9767,
      "9bat": 9768,
      "9bti": 9769,
      "9bli": 9770,
      "mlbo": 9771,
      "رجل": 9772,
      "saa2i": 9773,
      "شامي": 9774,
      "aniya": 9775,
      "نسدّ": 9776,
      "khtaar": 9777,
      "8or": 9778,
      "8oma": 9779,
      "srti": 9780,
      "وقعي": 9781,
      "m9ellel": 9782,
      "m9dder": 9783,
      "w93i": 9784,
      "طاع": 9785,
      "هراويين": 9786,
      "2amri": 9787,
      "مقال": 9788,
      "مقوّ": 9789,
      "مقنو": 9790,
      "مقيّد": 9791,
      "gaz": 9792,
      "تصبّ": 9793,
      "كاتعبر": 9794,
      "كاتعاني": 9795,
      "كاتعيّن": 9796,
      "كاتعدّل": 9797,
      "كاتعبّر": 9798,
      "كاتعارض": 9799,
      "كاتعتارف": 9800,
      "غاتعبر": 9801,
      "غاتعاني": 9802,
      "غاتعيّن": 9803,
      "غاتعدّل": 9804,
      "غاتعبّر": 9805,
      "غاتعارض": 9806,
      "غاتعتارف": 9807,
      "تابري": 9808,
      "nnaa": 9809,
      "ضاء": 9810,
      "ضاخ": 9811,
      "ضام": 9812,
      "مجرو": 9813,
      "tafdi": 9814,
      "itfa": 9815,
      "نتقا": 9816,
      "مكشو": 9817,
      "مكوّر": 9818,
      "مكناس": 9819,
      "مكتئب": 9820,
      "datan": 9821,
      "tkmi": 9822,
      "غيوّر": 9823,
      "hor": 9824,
      "kat3ber": 9825,
      "kat3ddel": 9826,
      "kat3aalj": 9827,
      "kat3tarf": 9828,
      "بلكامل": 9829,
      "بلمعقول": 9830,
      "بلعدل": 9831,
      "بلجيكا": 9832,
      "ghat3ber": 9833,
      "ghat3ddel": 9834,
      "ghat3aalj": 9835,
      "ghat3tarf": 9836,
      "ntama": 9837,
      "tfar": 9838,
      "tf8em": 9839,
      "tfddel": 9840,
      "tftard": 9841,
      "dine": 9842,
      "صاغ": 9843,
      "صافي": 9844,
      "زعجي": 9845,
      "زعفران": 9846,
      "khkhni": 9847,
      "man3": 9848,
      "stou": 9849,
      "تدوّر": 9850,
      "تدعم": 9851,
      "مبروك": 9852,
      "نحسب": 9853,
      "نحوّل": 9854,
      "نحوّلو": 9855,
      "نحلة": 9856,
      "بحري": 9857,
      "بحرا": 9858,
      "بحيرة": 9859,
      "لفت": 9860,
      "تكشيطة": 9861,
      "mjro": 9862,
      "شارف": 9863,
      "شاركي": 9864,
      "شارجا": 9865,
      "mennay": 9866,
      "طوّرت": 9867,
      "طوّرات": 9868,
      "طوّرتي": 9869,
      "سخي": 9870,
      "llif": 9871,
      "mkcho": 9872,
      "ytfa": 9873,
      "غرزة": 9874,
      "هلة": 9875,
      "kat9ra": 9876,
      "kat9sem": 9877,
      "i7ti": 9878,
      "mkhbbi": 9879,
      "مصلّ": 9880,
      "مصارن": 9881,
      "مصطّي": 9882,
      "عنب": 9883,
      "ghat9ra": 9884,
      "ghat9sem": 9885,
      "mine": 9886,
      "نخفّ": 9887,
      "katkhddem": 9888,
      "ستوعبي": 9889,
      "ghatkhddem": 9890,
      "mblo": 9891,
      "mbrrer": 9892,
      "فقه": 9893,
      "ميّة": 9894,
      "charki": 9895,
      "فكّرني": 9896,
      "ssal": 9897,
      "ssasa": 9898,
      "خدمتي": 9899,
      "ڭور": 9900,
      "katrfed": 9901,
      "katrkkez": 9902,
      "katraaj3": 9903,
      "كاتقرا": 9904,
      "كاتقنع": 9905,
      "كاتقتل": 9906,
      "كاتقشّر": 9907,
      "ڭازو": 9908,
      "ghatrfed": 9909,
      "ghatrkkez": 9910,
      "ghatraaj3": 9911,
      "كاتبان": 9912,
      "كاتبني": 9913,
      "كاتبرّر": 9914,
      "كاتبلّغ": 9915,
      "مارات": 9916,
      "غاتقرا": 9917,
      "غاتقنع": 9918,
      "غاتقتل": 9919,
      "tnazlo": 9920,
      "نجاوب": 9921,
      "نجمة": 9922,
      "تفتارض": 9923,
      "t2ett": 9924,
      "t2emmlo": 9925,
      "t2etter": 9926,
      "tsalmo": 9927,
      "tsa8lo": 9928,
      "غاتبان": 9929,
      "غاتبني": 9930,
      "غاتبرّر": 9931,
      "غاتبلّغ": 9932,
      "لاحضي": 9933,
      "كاتسمح": 9934,
      "كاتسكن": 9935,
      "tsog": 9936,
      "غاتسمح": 9937,
      "غاتسكن": 9938,
      "mnotj": 9939,
      "faj2": 9940,
      "8ia": 9941,
      "خوف": 9942,
[...]
